#include "model.h"

const unsigned char g_model[] = {
  0x20, 0x00, 0x00, 0x00, 0x54, 0x46, 0x4c, 0x33, 0x00, 0x00, 0x00, 0x00,
  0x14, 0x00, 0x20, 0x00, 0x1c, 0x00, 0x18, 0x00, 0x14, 0x00, 0x10, 0x00,
  0x0c, 0x00, 0x00, 0x00, 0x08, 0x00, 0x04, 0x00, 0x14, 0x00, 0x00, 0x00,
  0x1c, 0x00, 0x00, 0x00, 0x8c, 0x00, 0x00, 0x00, 0xe4, 0x00, 0x00, 0x00,
  0x28, 0x31, 0x00, 0x00, 0x38, 0x31, 0x00, 0x00, 0x68, 0x3c, 0x00, 0x00,
  0x03, 0x00, 0x00, 0x00, 0x01, 0x00, 0x00, 0x00, 0x04, 0x00, 0x00, 0x00,
  0x82, 0xce, 0xff, 0xff, 0x0c, 0x00, 0x00, 0x00, 0x1c, 0x00, 0x00, 0x00,
  0x3c, 0x00, 0x00, 0x00, 0x0f, 0x00, 0x00, 0x00, 0x73, 0x65, 0x72, 0x76,
  0x69, 0x6e, 0x67, 0x5f, 0x64, 0x65, 0x66, 0x61, 0x75, 0x6c, 0x74, 0x00,
  0x01, 0x00, 0x00, 0x00, 0x04, 0x00, 0x00, 0x00, 0x90, 0xff, 0xff, 0xff,
  0x10, 0x00, 0x00, 0x00, 0x04, 0x00, 0x00, 0x00, 0x08, 0x00, 0x00, 0x00,
  0x64, 0x65, 0x6e, 0x73, 0x65, 0x5f, 0x33, 0x34, 0x00, 0x00, 0x00, 0x00,
  0x01, 0x00, 0x00, 0x00, 0x04, 0x00, 0x00, 0x00, 0x5e, 0xcf, 0xff, 0xff,
  0x04, 0x00, 0x00, 0x00, 0x0e, 0x00, 0x00, 0x00, 0x64, 0x65, 0x6e, 0x73,
  0x65, 0x5f, 0x33, 0x30, 0x5f, 0x69, 0x6e, 0x70, 0x75, 0x74, 0x00, 0x00,
  0x02, 0x00, 0x00, 0x00, 0x34, 0x00, 0x00, 0x00, 0x04, 0x00, 0x00, 0x00,
  0xdc, 0xff, 0xff, 0xff, 0x13, 0x00, 0x00, 0x00, 0x04, 0x00, 0x00, 0x00,
  0x13, 0x00, 0x00, 0x00, 0x43, 0x4f, 0x4e, 0x56, 0x45, 0x52, 0x53, 0x49,
  0x4f, 0x4e, 0x5f, 0x4d, 0x45, 0x54, 0x41, 0x44, 0x41, 0x54, 0x41, 0x00,
  0x08, 0x00, 0x0c, 0x00, 0x08, 0x00, 0x04, 0x00, 0x08, 0x00, 0x00, 0x00,
  0x12, 0x00, 0x00, 0x00, 0x04, 0x00, 0x00, 0x00, 0x13, 0x00, 0x00, 0x00,
  0x6d, 0x69, 0x6e, 0x5f, 0x72, 0x75, 0x6e, 0x74, 0x69, 0x6d, 0x65, 0x5f,
  0x76, 0x65, 0x72, 0x73, 0x69, 0x6f, 0x6e, 0x00, 0x14, 0x00, 0x00, 0x00,
  0x40, 0x30, 0x00, 0x00, 0x38, 0x30, 0x00, 0x00, 0x24, 0x30, 0x00, 0x00,
  0xfc, 0x2f, 0x00, 0x00, 0xac, 0x2f, 0x00, 0x00, 0x9c, 0x2d, 0x00, 0x00,
  0x0c, 0x2d, 0x00, 0x00, 0xfc, 0x24, 0x00, 0x00, 0xec, 0x23, 0x00, 0x00,
  0xdc, 0x03, 0x00, 0x00, 0xcc, 0x01, 0x00, 0x00, 0xbc, 0x00, 0x00, 0x00,
  0xb4, 0x00, 0x00, 0x00, 0xac, 0x00, 0x00, 0x00, 0xa4, 0x00, 0x00, 0x00,
  0x9c, 0x00, 0x00, 0x00, 0x94, 0x00, 0x00, 0x00, 0x8c, 0x00, 0x00, 0x00,
  0x6c, 0x00, 0x00, 0x00, 0x04, 0x00, 0x00, 0x00, 0x2a, 0xd0, 0xff, 0xff,
  0x04, 0x00, 0x00, 0x00, 0x58, 0x00, 0x00, 0x00, 0x0c, 0x00, 0x00, 0x00,
  0x08, 0x00, 0x0e, 0x00, 0x08, 0x00, 0x04, 0x00, 0x08, 0x00, 0x00, 0x00,
  0x10, 0x00, 0x00, 0x00, 0x28, 0x00, 0x00, 0x00, 0x00, 0x00, 0x06, 0x00,
  0x08, 0x00, 0x04, 0x00, 0x06, 0x00, 0x00, 0x00, 0x04, 0x00, 0x00, 0x00,
  0x01, 0x00, 0x00, 0x00, 0xeb, 0x03, 0x00, 0x00, 0x00, 0x00, 0x0a, 0x00,
  0x10, 0x00, 0x0c, 0x00, 0x08, 0x00, 0x04, 0x00, 0x0a, 0x00, 0x00, 0x00,
  0x01, 0x00, 0x00, 0x00, 0x02, 0x00, 0x00, 0x00, 0x04, 0x00, 0x00, 0x00,
  0x06, 0x00, 0x00, 0x00, 0x32, 0x2e, 0x31, 0x32, 0x2e, 0x30, 0x00, 0x00,
  0x8e, 0xd0, 0xff, 0xff, 0x04, 0x00, 0x00, 0x00, 0x10, 0x00, 0x00, 0x00,
  0x31, 0x2e, 0x31, 0x34, 0x2e, 0x30, 0x00, 0x00, 0x00, 0x00, 0x00, 0x00,
  0x00, 0x00, 0x00, 0x00, 0xe0, 0xcf, 0xff, 0xff, 0xe4, 0xcf, 0xff, 0xff,
  0xe8, 0xcf, 0xff, 0xff, 0xec, 0xcf, 0xff, 0xff, 0xf0, 0xcf, 0xff, 0xff,
  0xf4, 0xcf, 0xff, 0xff, 0xc2, 0xd0, 0xff, 0xff, 0x04, 0x00, 0x00, 0x00,
  0x00, 0x01, 0x00, 0x00, 0xd9, 0xe3, 0x23, 0x00, 0xd8, 0xf3, 0x00, 0xef,
  0x04, 0xe9, 0x07, 0xfe, 0x19, 0xd9, 0x00, 0xf5, 0x7e, 0xfb, 0xa0, 0xf3,
  0xf0, 0xed, 0x11, 0xe5, 0xdb, 0xf9, 0x62, 0xff, 0xee, 0xfb, 0xfc, 0xe8,
  0xea, 0xf8, 0x45, 0xed, 0xf9, 0xed, 0xfb, 0xec, 0x7f, 0xf9, 0xa1, 0xf7,
  0x22, 0xc8, 0xc2, 0x00, 0xfa, 0xf0, 0xf7, 0xf2, 0x17, 0xbc, 0x20, 0xd7,
  0xcc, 0xe9, 0x63, 0x00, 0x03, 0xe9, 0xf6, 0xf5, 0xf5, 0xea, 0xd1, 0xff,
  0x27, 0xfa, 0x21, 0xeb, 0x1d, 0xd2, 0x94, 0x04, 0xfc, 0xfc, 0xde, 0xf4,
  0xf6, 0xdb, 0x01, 0xdb, 0x30, 0xb9, 0xf2, 0xf4, 0xe1, 0xed, 0x7c, 0xfe,
  0xba, 0x05, 0xdc, 0xff, 0xe3, 0xf4, 0xf8, 0xf1, 0xf3, 0xf5, 0xe4, 0x05,
  0xf8, 0xf0, 0x8d, 0x03, 0xdf, 0xfe, 0xe9, 0x00, 0xe2, 0xe2, 0x49, 0xfd,
  0x77, 0x02, 0xcf, 0xfa, 0x6b, 0x06, 0x09, 0xfc, 0xd1, 0xf7, 0xf0, 0xea,
  0xfa, 0xf4, 0xf2, 0xfa, 0xcb, 0x06, 0xf3, 0xee, 0xd1, 0xfb, 0xc9, 0xf5,
  0x05, 0xd1, 0x09, 0xf3, 0xa2, 0x05, 0x93, 0xf7, 0xbc, 0x00, 0xe5, 0xf0,
  0xf6, 0xfd, 0xc2, 0xff, 0xd1, 0xfe, 0x44, 0xfb, 0x6c, 0x01, 0x1b, 0xf3,
  0xf2, 0xfa, 0x1b, 0xef, 0xe9, 0xe0, 0xfb, 0xea, 0xc7, 0x00, 0x10, 0xcb,
  0xf8, 0xf2, 0xc8, 0xfb, 0xc7, 0xfd, 0x38, 0xf0, 0x34, 0xf9, 0xdc, 0xfb,
  0xec, 0xf5, 0xee, 0x05, 0x11, 0xd4, 0xe6, 0xdf, 0x13, 0xca, 0xf6, 0xfa,
  0xee, 0xed, 0x1b, 0xc9, 0xb5, 0xff, 0xf6, 0xff, 0x0c, 0xe1, 0x1e, 0xd2,
  0xd6, 0xf7, 0x5f, 0x02, 0xdc, 0xf7, 0xd6, 0xfc, 0x10, 0xd6, 0x4f, 0xf3,
  0xe0, 0xf6, 0x68, 0xff, 0xcf, 0xdf, 0x7b, 0xfe, 0x6b, 0x06, 0xa8, 0x02,
  0xc8, 0xf6, 0x13, 0xd0, 0xe1, 0xfe, 0x22, 0xf5, 0xdd, 0xf9, 0x04, 0xe1,
  0xed, 0xee, 0xf9, 0xf9, 0xd9, 0xfb, 0xfa, 0x02, 0xce, 0xd1, 0xff, 0xff,
  0x04, 0x00, 0x00, 0x00, 0x00, 0x02, 0x00, 0x00, 0x00, 0x00, 0x00, 0x00,
  0x41, 0xf5, 0xff, 0xff, 0x00, 0x00, 0x00, 0x00, 0x00, 0x00, 0x00, 0x00,
  0xc6, 0xfe, 0xff, 0xff, 0x20, 0xfd, 0xff, 0xff, 0x4d, 0xf8, 0xff, 0xff,
  0x59, 0xff, 0xff, 0xff, 0xc9, 0xe7, 0xff, 0xff, 0xec, 0x01, 0x00, 0x00,
  0x00, 0x00, 0x00, 0x00, 0xf4, 0xfe, 0xff, 0xff, 0x7e, 0x06, 0x00, 0x00,
  0x1b, 0xe8, 0xff, 0xff, 0x00, 0x00, 0x00, 0x00, 0x5e, 0xff, 0xff, 0xff,
  0x00, 0x00, 0x00, 0x00, 0x2f, 0xf1, 0xff, 0xff, 0x00, 0x00, 0x00, 0x00,
  0x00, 0x00, 0x00, 0x00, 0x9a, 0xe9, 0xff, 0xff, 0x62, 0x00, 0x00, 0x00,
  0x3c, 0xfc, 0xff, 0xff, 0xa4, 0x05, 0x00, 0x00, 0x71, 0xfd, 0xff, 0xff,
  0x88, 0xfc, 0xff, 0xff, 0x26, 0xfd, 0xff, 0xff, 0x8f, 0xfb, 0xff, 0xff,
  0x01, 0xfb, 0xff, 0xff, 0x73, 0xe8, 0xff, 0xff, 0xf3, 0xfe, 0xff, 0xff,
  0xca, 0x00, 0x00, 0x00, 0x00, 0x00, 0x00, 0x00, 0x65, 0x01, 0x00, 0x00,
  0xad, 0xf4, 0xff, 0xff, 0xe7, 0xf6, 0xff, 0xff, 0x3f, 0xfd, 0xff, 0xff,
  0xc6, 0x08, 0x00, 0x00, 0xae, 0xff, 0xff, 0xff, 0xf8, 0x08, 0x00, 0x00,
  0x00, 0x00, 0x00, 0x00, 0x3c, 0xff, 0xff, 0xff, 0x0a, 0xfc, 0xff, 0xff,
  0x00, 0x00, 0x00, 0x00, 0x00, 0x00, 0x00, 0x00, 0xe7, 0xe7, 0xff, 0xff,
  0xaa, 0x05, 0x00, 0x00, 0xd2, 0x01, 0x00, 0x00, 0x00, 0x00, 0x00, 0x00,
  0x29, 0xff, 0xff, 0xff, 0xea, 0xfe, 0xff, 0xff, 0x80, 0x00, 0x00, 0x00,
  0x00, 0x00, 0x00, 0x00, 0x13, 0x02, 0x00, 0x00, 0xbf, 0x01, 0x00, 0x00,
  0x5d, 0xff, 0xff, 0xff, 0x00, 0x00, 0x00, 0x00, 0x04, 0xec, 0xff, 0xff,
  0x66, 0xe8, 0xff, 0xff, 0x98, 0x03, 0x00, 0x00, 0x14, 0xe6, 0xff, 0xff,
  0xd4, 0xf8, 0xff, 0xff, 0x99, 0x0a, 0x00, 0x00, 0x00, 0x00, 0x00, 0x00,
  0xb9, 0xfb, 0xff, 0xff, 0x00, 0x00, 0x00, 0x00, 0x0f, 0x01, 0x00, 0x00,
  0x00, 0x00, 0x00, 0x00, 0xc2, 0x08, 0x00, 0x00, 0xb4, 0x05, 0x00, 0x00,
  0x2d, 0xff, 0xff, 0xff, 0xbf, 0xfe, 0xff, 0xff, 0x9e, 0x00, 0x00, 0x00,
  0x8f, 0x09, 0x00, 0x00, 0xa7, 0x03, 0x00, 0x00, 0x00, 0x00, 0x00, 0x00,
  0x4d, 0xff, 0xff, 0xff, 0x6f, 0x01, 0x00, 0x00, 0x17, 0xff, 0xff, 0xff,
  0x2d, 0xee, 0xff, 0xff, 0x67, 0xe7, 0xff, 0xff, 0x0f, 0xf8, 0xff, 0xff,
  0x00, 0x00, 0x00, 0x00, 0xbc, 0xf6, 0xff, 0xff, 0x00, 0x00, 0x00, 0x00,
  0x00, 0x00, 0x00, 0x00, 0xc7, 0x02, 0x00, 0x00, 0xc8, 0xfe, 0xff, 0xff,
  0x00, 0x00, 0x00, 0x00, 0x03, 0x06, 0x00, 0x00, 0xaf, 0x00, 0x00, 0x00,
  0xe0, 0xf2, 0xff, 0xff, 0x67, 0xf2, 0xff, 0xff, 0x00, 0x00, 0x00, 0x00,
  0x00, 0x00, 0x00, 0x00, 0x13, 0xfb, 0xff, 0xff, 0xd6, 0xfe, 0xff, 0xff,
  0x00, 0x00, 0x00, 0x00, 0x70, 0xfe, 0xff, 0xff, 0x00, 0x00, 0x00, 0x00,
  0x00, 0x00, 0x00, 0x00, 0x52, 0xfc, 0xff, 0xff, 0x67, 0x00, 0x00, 0x00,
  0x00, 0x00, 0x00, 0x00, 0x1d, 0xfe, 0xff, 0xff, 0xeb, 0xfe, 0xff, 0xff,
  0x7e, 0x08, 0x00, 0x00, 0xe3, 0xe7, 0xff, 0xff, 0xd8, 0xff, 0xff, 0xff,
  0xa6, 0x04, 0x00, 0x00, 0xa3, 0xfe, 0xff, 0xff, 0x6c, 0xec, 0xff, 0xff,
  0x00, 0x00, 0x00, 0x00, 0x32, 0xe7, 0xff, 0xff, 0xb3, 0x01, 0x00, 0x00,
  0x4a, 0xe7, 0xff, 0xff, 0x54, 0xe6, 0xff, 0xff, 0xf3, 0x01, 0x00, 0x00,
  0x3d, 0xff, 0xff, 0xff, 0x57, 0xfe, 0xff, 0xff, 0x7c, 0xfd, 0xff, 0xff,
  0x64, 0xf7, 0xff, 0xff, 0x99, 0x04, 0x00, 0x00, 0x00, 0x00, 0x00, 0x00,
  0x00, 0x00, 0x00, 0x00, 0xdd, 0xff, 0xff, 0xff, 0x99, 0x08, 0x00, 0x00,
  0x98, 0xfb, 0xff, 0xff, 0xda, 0xd3, 0xff, 0xff, 0x04, 0x00, 0x00, 0x00,
  0x00, 0x20, 0x00, 0x00, 0x03, 0xff, 0xfc, 0x06, 0x05, 0x02, 0xfb, 0xfe,
  0x01, 0xfc, 0xff, 0xff, 0x00, 0x02, 0x05, 0x06, 0x00, 0x02, 0x06, 0x04,
  0x01, 0xfb, 0xfc, 0xf9, 0xfb, 0xfc, 0xfa, 0xfc, 0xfb, 0xff, 0xfd, 0xfc,
  0x01, 0xfc, 0xfa, 0x00, 0x04, 0x00, 0xff, 0xfb, 0x05, 0xfb, 0xfc, 0x00,
  0x00, 0xfe, 0xfd, 0x01, 0xfc, 0x00, 0x05, 0xfd, 0xfc, 0xfb, 0x01, 0x03,
  0x01, 0xfe, 0xfe, 0x00, 0xfc, 0xfe, 0x01, 0x00, 0xfc, 0xfe, 0x04, 0x05,
  0x03, 0x01, 0x05, 0x02, 0x01, 0xfd, 0xff, 0xfe, 0x00, 0x01, 0x03, 0xfd,
  0x00, 0x00, 0xfd, 0xfc, 0x04, 0x05, 0xff, 0x00, 0x01, 0xfd, 0x01, 0x00,
  0x01, 0xfe, 0x05, 0xfd, 0xff, 0xff, 0x03, 0x06, 0x03, 0xf9, 0xfc, 0xfb,
  0xfb, 0xfe, 0xfe, 0xff, 0xf8, 0xf9, 0x01, 0xf9, 0x05, 0xf9, 0xfe, 0xff,
  0xfb, 0xff, 0x00, 0x02, 0xfb, 0xfa, 0xfe, 0x01, 0x04, 0x04, 0xfd, 0xfc,
  0x01, 0xf8, 0x04, 0x01, 0x02, 0x04, 0xfa, 0xfa, 0xff, 0xfa, 0x05, 0x02,
  0xfc, 0xf6, 0xfe, 0xfc, 0x01, 0x04, 0xfb, 0x02, 0xfc, 0xfd, 0xfe, 0xfb,
  0x02, 0xff, 0x08, 0x05, 0xfe, 0xfb, 0xff, 0xfb, 0x03, 0xfc, 0xfa, 0x00,
  0x08, 0xfe, 0xfd, 0xf8, 0xfc, 0x00, 0xfe, 0x05, 0xfd, 0x01, 0xfe, 0xff,
  0x04, 0x01, 0x03, 0x01, 0x04, 0x02, 0xfe, 0x02, 0xff, 0xfc, 0xff, 0xfd,
  0xf6, 0xff, 0xfe, 0xff, 0xfe, 0xfc, 0x01, 0x02, 0xf4, 0xfd, 0xfc, 0x03,
  0xf9, 0xf4, 0xfe, 0x01, 0x00, 0xfb, 0x06, 0xfa, 0xf7, 0xff, 0x00, 0x04,
  0xff, 0xfe, 0x0b, 0x00, 0xff, 0xf6, 0x01, 0xfe, 0xfc, 0x05, 0x03, 0xff,
  0xfb, 0xfd, 0x03, 0x04, 0xff, 0x07, 0x00, 0xfe, 0x03, 0xff, 0xfc, 0xfc,
  0x00, 0x00, 0xff, 0x00, 0x03, 0xfd, 0xfe, 0xfb, 0xfd, 0xff, 0x02, 0x04,
  0xfb, 0x05, 0xf9, 0x01, 0x03, 0x02, 0xfc, 0xf8, 0x05, 0xff, 0xfe, 0xfc,
  0x09, 0x00, 0x01, 0x08, 0x11, 0x05, 0x04, 0xfd, 0x03, 0x04, 0xff, 0xfb,
  0xfe, 0xfe, 0x04, 0x03, 0x11, 0x0b, 0x04, 0xff, 0x06, 0x00, 0x07, 0x0b,
  0x09, 0x02, 0x09, 0xff, 0xff, 0xff, 0x06, 0xff, 0x02, 0xf7, 0xfd, 0xfd,
  0xfb, 0x04, 0x05, 0x00, 0xfd, 0x12, 0xf8, 0xfd, 0x03, 0x01, 0x08, 0x01,
  0xff, 0xfe, 0x04, 0x03, 0xfe, 0x04, 0x15, 0x06, 0x11, 0x01, 0xfd, 0xfd,
  0x01, 0xfc, 0xfd, 0xfe, 0x02, 0x00, 0x02, 0x08, 0x02, 0xfb, 0x04, 0xfc,
  0x04, 0xfe, 0xff, 0x01, 0x0d, 0x03, 0x01, 0x01, 0x01, 0xfb, 0x02, 0x08,
  0xfc, 0x02, 0x00, 0xfd, 0xfd, 0xfe, 0xfd, 0xfe, 0x00, 0xfc, 0x05, 0xff,
  0xfc, 0x01, 0x01, 0xff, 0x00, 0x07, 0xfd, 0x04, 0x04, 0xff, 0x09, 0x02,
  0xff, 0x06, 0x05, 0x0e, 0x0f, 0xfb, 0xfd, 0x02, 0x05, 0x04, 0xff, 0xfa,
  0xfd, 0xfe, 0x02, 0x00, 0xfb, 0xf9, 0xfa, 0x06, 0xf9, 0xfc, 0x06, 0xff,
  0xff, 0xff, 0x01, 0x03, 0x02, 0xfb, 0x01, 0xfe, 0xfc, 0xfc, 0x00, 0x03,
  0x07, 0xf7, 0x03, 0xff, 0x04, 0x01, 0x03, 0x03, 0xff, 0xfc, 0x04, 0x00,
  0xfb, 0x03, 0xfe, 0xfe, 0x0a, 0x03, 0xfc, 0x07, 0x04, 0x00, 0x09, 0x03,
  0xff, 0xfc, 0x03, 0x04, 0xff, 0x04, 0x04, 0x02, 0x03, 0x04, 0x05, 0x01,
  0x02, 0xf6, 0xef, 0xfe, 0xe8, 0xfe, 0x03, 0xfb, 0xfd, 0x03, 0x01, 0x03,
  0xff, 0xfb, 0x01, 0xf9, 0x02, 0xf7, 0x07, 0x04, 0xfd, 0x01, 0x08, 0x03,
  0xf3, 0x06, 0xff, 0x05, 0x00, 0x04, 0x0c, 0x04, 0x03, 0x09, 0x06, 0x03,
  0xff, 0x05, 0xfc, 0xfd, 0xfe, 0xfc, 0x08, 0x01, 0xfe, 0x09, 0x03, 0x01,
  0xfc, 0xfb, 0x00, 0xef, 0x05, 0x05, 0x09, 0x03, 0xfc, 0xfb, 0x0d, 0x00,
  0xe8, 0x01, 0x02, 0x05, 0x01, 0xfc, 0x05, 0x05, 0x02, 0x01, 0x06, 0xfc,
  0x05, 0xfb, 0xfb, 0xfe, 0xfb, 0x00, 0xf7, 0xfb, 0xfc, 0xf6, 0x05, 0x11,
  0xf8, 0x00, 0x04, 0x02, 0x00, 0x00, 0xfd, 0xfe, 0x05, 0xf4, 0x0a, 0xfd,
  0xfe, 0xfc, 0x11, 0x0a, 0xfc, 0x03, 0x05, 0x00, 0xfe, 0x02, 0x06, 0x01,
  0x07, 0xed, 0xff, 0xe3, 0x02, 0xfe, 0x0a, 0x02, 0xfb, 0x05, 0xf9, 0xfc,
  0x00, 0x00, 0xfc, 0xfc, 0x00, 0xfc, 0xfd, 0xfd, 0xfc, 0xfc, 0x07, 0xf7,
  0xfc, 0x05, 0xf7, 0x05, 0x02, 0x01, 0xfa, 0xfb, 0xf2, 0xfa, 0xfa, 0x01,
  0xfa, 0xe9, 0xf9, 0x01, 0xff, 0xfa, 0xff, 0x02, 0x05, 0x04, 0x05, 0xfc,
  0xfd, 0xfb, 0xf9, 0x03, 0x01, 0xe6, 0xfa, 0x06, 0xff, 0xfc, 0x00, 0xfc,
  0x06, 0x03, 0x0c, 0xfb, 0xfd, 0x0f, 0xfc, 0xfc, 0x0e, 0x0d, 0xf6, 0xf4,
  0x01, 0xf7, 0x03, 0x04, 0xfe, 0xfe, 0xf6, 0x04, 0xf8, 0xf8, 0xff, 0x16,
  0xf8, 0x01, 0xff, 0xfd, 0xfe, 0xfa, 0xed, 0xfa, 0xfe, 0xfb, 0x03, 0xff,
  0xfb, 0x02, 0xfa, 0x04, 0xf8, 0xfd, 0x01, 0x02, 0x04, 0xf6, 0x04, 0x01,
  0x02, 0xfb, 0x05, 0xfc, 0xf7, 0xfc, 0x00, 0xfc, 0x00, 0xfc, 0x02, 0xfc,
  0xfd, 0xf6, 0x04, 0xfc, 0x02, 0xfb, 0xfe, 0xf6, 0xfe, 0xfb, 0xfd, 0x04,
  0xfc, 0x00, 0xf6, 0xfb, 0xfb, 0xfe, 0x01, 0x00, 0x04, 0xfb, 0xfd, 0x02,
  0x00, 0x05, 0xfd, 0xff, 0x00, 0xfb, 0xfd, 0x05, 0xfd, 0x03, 0xf9, 0x04,
  0x05, 0x01, 0x05, 0xfb, 0x01, 0x05, 0x05, 0x03, 0xfe, 0xf6, 0xfb, 0x03,
  0xfb, 0xff, 0x03, 0xfc, 0xf5, 0xfa, 0x02, 0xfb, 0xfb, 0x04, 0xfd, 0x01,
  0x01, 0xfb, 0x02, 0x01, 0xf5, 0x03, 0x03, 0xfc, 0xfd, 0x05, 0xff, 0x04,
  0x02, 0x05, 0xfa, 0x03, 0x00, 0xfb, 0xfc, 0xf4, 0xfa, 0xfd, 0x01, 0xf6,
  0xfc, 0xf7, 0xfd, 0xfd, 0xfa, 0x03, 0xfd, 0x05, 0xfa, 0xfb, 0xfe, 0x03,
  0xfd, 0x04, 0xfb, 0xfc, 0xfc, 0xf5, 0x03, 0xfc, 0x05, 0xfc, 0x04, 0x06,
  0x03, 0xf8, 0xfe, 0x03, 0xfb, 0x00, 0xfb, 0x02, 0x01, 0x01, 0xff, 0xfd,
  0x0c, 0xf6, 0x0a, 0xf5, 0x02, 0x01, 0x0b, 0x0b, 0x05, 0x07, 0x05, 0x02,
  0xfe, 0xfd, 0x06, 0x08, 0x0e, 0xf7, 0x03, 0x00, 0xfe, 0xfe, 0x0e, 0xfe,
  0xfe, 0x08, 0xf4, 0xfc, 0xfe, 0x01, 0x07, 0x05, 0xfb, 0xfb, 0x00, 0x04,
  0x05, 0x04, 0x0b, 0xfe, 0x04, 0x01, 0xfd, 0x00, 0xfc, 0xfc, 0xfb, 0x02,
  0xf5, 0x00, 0xfd, 0xfd, 0x02, 0xf5, 0xfd, 0xfd, 0x02, 0xfe, 0x01, 0x01,
  0x0b, 0xff, 0x02, 0xff, 0xfb, 0x06, 0xff, 0x00, 0xff, 0x00, 0xfc, 0x06,
  0xfb, 0xfc, 0xfe, 0xfc, 0x04, 0x00, 0xfc, 0x02, 0x01, 0x03, 0x03, 0x01,
  0x06, 0x03, 0xff, 0x00, 0xfe, 0xf7, 0x04, 0xff, 0x04, 0x03, 0x0b, 0x04,
  0xfd, 0xfa, 0xfd, 0x05, 0x04, 0x02, 0x00, 0x02, 0xff, 0x06, 0xf2, 0x04,
  0x02, 0x02, 0x05, 0x04, 0xfe, 0xff, 0x03, 0x04, 0x13, 0x04, 0xfd, 0x03,
  0x00, 0x0a, 0x04, 0x04, 0xfd, 0x04, 0x05, 0x01, 0x0b, 0x02, 0x06, 0x02,
  0x00, 0x03, 0x08, 0x09, 0x05, 0x06, 0xff, 0xff, 0xfa, 0x04, 0x09, 0x06,
  0xff, 0xfc, 0x01, 0xff, 0xff, 0x02, 0x02, 0x03, 0x05, 0x13, 0x03, 0xff,
  0x05, 0x00, 0x02, 0x01, 0x05, 0x01, 0x04, 0x00, 0x02, 0x04, 0x10, 0x00,
  0x0c, 0x02, 0xfb, 0xff, 0x06, 0xfb, 0x00, 0x02, 0xfd, 0xfe, 0xfc, 0x07,
  0xfb, 0xfb, 0x04, 0xfb, 0x00, 0x00, 0x02, 0x02, 0x0f, 0x00, 0x04, 0xff,
  0xfc, 0x01, 0x01, 0xfe, 0xfe, 0xfe, 0xfe, 0xfe, 0x02, 0x01, 0xfb, 0xfe,
  0xfe, 0x03, 0x00, 0x05, 0xff, 0x00, 0x02, 0x00, 0x06, 0x09, 0xfc, 0x08,
  0x02, 0x04, 0x08, 0xfe, 0x02, 0x0d, 0x05, 0x11, 0x0d, 0x02, 0xff, 0xfe,
  0x02, 0x06, 0x01, 0x02, 0x02, 0x01, 0x02, 0x00, 0x00, 0x02, 0x01, 0xfd,
  0xfc, 0xf9, 0x02, 0x04, 0xfe, 0x06, 0xff, 0x04, 0xfb, 0xfe, 0x02, 0xfe,
  0xfd, 0xfd, 0xfb, 0x03, 0xf7, 0x02, 0x01, 0xfb, 0x00, 0xff, 0x08, 0x03,
  0xfd, 0x01, 0x04, 0xfc, 0xff, 0x00, 0xff, 0xff, 0x01, 0x03, 0xfa, 0xfd,
  0x00, 0x00, 0xff, 0x00, 0xfd, 0xfd, 0x08, 0x01, 0x04, 0x03, 0xfb, 0xfd,
  0xfe, 0x06, 0x03, 0x03, 0x00, 0xfa, 0xff, 0x01, 0xff, 0xfa, 0x05, 0xfb,
  0x01, 0x03, 0xfd, 0xff, 0x00, 0xfc, 0x06, 0x00, 0x03, 0x01, 0x03, 0x03,
  0xfb, 0x05, 0xff, 0x00, 0x00, 0xf9, 0xfe, 0x01, 0x03, 0x04, 0x01, 0xff,
  0x03, 0x04, 0xff, 0xfb, 0xf9, 0x05, 0x03, 0xfc, 0x01, 0xff, 0xfc, 0x05,
  0x00, 0xf9, 0x04, 0xfc, 0xff, 0x03, 0x03, 0xf7, 0x04, 0xfe, 0x04, 0xf7,
  0x00, 0xfe, 0x01, 0xfb, 0xf9, 0xff, 0x00, 0xf9, 0x00, 0xfe, 0xfd, 0xfd,
  0xfc, 0x04, 0xff, 0xfe, 0x02, 0xfc, 0x02, 0xff, 0x03, 0xfa, 0xfe, 0xff,
  0x02, 0x05, 0x03, 0x03, 0x00, 0xff, 0x04, 0x03, 0x01, 0xfa, 0x04, 0xfa,
  0xfb, 0xfc, 0x01, 0xfb, 0xfd, 0xfc, 0xf9, 0x02, 0x00, 0xf9, 0xfb, 0xf9,
  0x04, 0x03, 0xfe, 0x03, 0xfd, 0xfa, 0xfb, 0xfe, 0x00, 0x01, 0x02, 0x01,
  0xfe, 0x04, 0x00, 0x04, 0xff, 0xfe, 0x04, 0xfa, 0xfc, 0x03, 0x00, 0xfc,
  0x04, 0xfe, 0xfc, 0x00, 0xfc, 0xf9, 0x01, 0xff, 0x02, 0xfe, 0x03, 0x06,
  0xfe, 0xfc, 0xf9, 0xf9, 0xfb, 0xfc, 0x05, 0x05, 0x01, 0xfb, 0x00, 0xf9,
  0xfb, 0x01, 0x01, 0xfc, 0x03, 0xff, 0x01, 0xfe, 0xfc, 0x05, 0xfb, 0xfc,
  0xff, 0x03, 0x00, 0xfe, 0xfd, 0xfd, 0x02, 0x04, 0x00, 0xfa, 0x02, 0x03,
  0x02, 0xfa, 0xff, 0xfe, 0x02, 0xfe, 0xfc, 0xfa, 0xfd, 0x00, 0x00, 0x03,
  0x03, 0xff, 0xfd, 0xfb, 0xfa, 0x01, 0xfc, 0x02, 0xfc, 0xfd, 0x01, 0x03,
  0xff, 0x02, 0x04, 0x02, 0xfe, 0x00, 0xfc, 0x05, 0x03, 0x02, 0xfe, 0x04,
  0xfb, 0xfb, 0xfd, 0xfd, 0x01, 0x03, 0xfb, 0xff, 0xfd, 0xfb, 0x01, 0xfe,
  0xfb, 0x01, 0xff, 0x04, 0x00, 0xff, 0xfd, 0xfd, 0x03, 0xf9, 0xfa, 0x05,
  0x04, 0xfe, 0xff, 0xf9, 0x03, 0x02, 0xfd, 0x02, 0xfe, 0xfd, 0xf9, 0xfd,
  0xfe, 0x04, 0xfc, 0xf9, 0xff, 0x01, 0x02, 0x04, 0x05, 0x00, 0xff, 0x00,
  0xfc, 0x04, 0x00, 0xfd, 0x04, 0x03, 0xfe, 0x02, 0x00, 0xfa, 0xfa, 0x05,
  0x00, 0xfb, 0x02, 0xff, 0xfe, 0x03, 0xff, 0x03, 0xfb, 0xff, 0x04, 0x02,
  0xfe, 0x05, 0xfa, 0x00, 0xfb, 0x03, 0xff, 0x04, 0xfa, 0xfc, 0x02, 0xfd,
  0xfc, 0xfe, 0x06, 0x02, 0x05, 0xfc, 0xfc, 0xfb, 0xfe, 0x04, 0x03, 0xf9,
  0x01, 0x01, 0x03, 0xfa, 0xfd, 0xfa, 0xfe, 0x01, 0x04, 0xfb, 0x04, 0x02,
  0xfa, 0x04, 0xfd, 0xfe, 0xfc, 0x03, 0x03, 0x02, 0x01, 0x03, 0x01, 0x02,
  0xff, 0x03, 0xff, 0x03, 0xff, 0xfd, 0xfd, 0xfe, 0x03, 0x04, 0x01, 0xff,
  0x01, 0xfd, 0xff, 0x05, 0xfb, 0xfe, 0x05, 0xfa, 0x02, 0x04, 0xff, 0x06,
  0x03, 0xfc, 0x03, 0x00, 0x04, 0xff, 0xfe, 0xfd, 0xfb, 0x00, 0x04, 0xfb,
  0xfd, 0xfb, 0xfc, 0x02, 0xfc, 0x05, 0xfc, 0x00, 0xfc, 0xfd, 0x04, 0xfc,
  0xfe, 0x03, 0x04, 0xfc, 0x04, 0xfb, 0xfe, 0xfb, 0xfe, 0x00, 0xfe, 0x02,
  0xfa, 0xff, 0xfd, 0xfc, 0xfe, 0xf8, 0x03, 0x04, 0x02, 0x02, 0xfa, 0x00,
  0xfd, 0xf9, 0xfc, 0xfa, 0x00, 0x00, 0x03, 0x04, 0x03, 0x01, 0xfd, 0x00,
  0x04, 0xfc, 0xfd, 0xff, 0x03, 0x04, 0xfd, 0x04, 0xff, 0x00, 0x03, 0xff,
  0xfb, 0x01, 0x02, 0xfb, 0xfe, 0xfb, 0xff, 0xfa, 0xfb, 0xfe, 0xfa, 0x00,
  0x05, 0x03, 0x02, 0x02, 0xf9, 0xff, 0xff, 0x04, 0xfd, 0xff, 0xfc, 0xfe,
  0x02, 0xfa, 0x00, 0xff, 0x00, 0xfe, 0x02, 0xfb, 0x03, 0x03, 0x03, 0xfc,
  0xfc, 0xff, 0xfc, 0x05, 0xfa, 0xff, 0xfb, 0xff, 0x05, 0x04, 0xfb, 0x05,
  0xfd, 0xff, 0x00, 0xfd, 0xfb, 0x05, 0x04, 0xfb, 0x03, 0x05, 0x05, 0xff,
  0xff, 0xff, 0x02, 0xfc, 0x03, 0x00, 0xff, 0x04, 0xfe, 0x06, 0x00, 0xfb,
  0x02, 0xfa, 0xfa, 0x04, 0xfd, 0x02, 0xfe, 0x03, 0x06, 0xff, 0x03, 0x03,
  0x00, 0x01, 0x00, 0xfa, 0xfd, 0x03, 0xfc, 0x03, 0x04, 0x02, 0x04, 0xfc,
  0x02, 0x04, 0x04, 0x04, 0xff, 0xfd, 0xfe, 0x05, 0xfb, 0x01, 0x04, 0xfe,
  0x03, 0xfc, 0xfd, 0x05, 0x01, 0xfd, 0x02, 0xfc, 0xfc, 0x02, 0xff, 0xfd,
  0xfb, 0xff, 0x04, 0xfe, 0x05, 0x01, 0x06, 0xff, 0xfc, 0x00, 0xfe, 0x03,
  0x03, 0x02, 0x01, 0xfb, 0xff, 0xfb, 0x03, 0xfb, 0x02, 0x00, 0xfd, 0x06,
  0xfd, 0x03, 0x00, 0x02, 0xfe, 0xfb, 0x04, 0x03, 0xfb, 0xff, 0x02, 0x00,
  0x03, 0x02, 0xfd, 0xfb, 0xff, 0x01, 0x03, 0xfd, 0xfd, 0xfb, 0xfa, 0xfd,
  0xfe, 0x01, 0xfc, 0x01, 0xfe, 0xfb, 0x03, 0x03, 0xfe, 0xfb, 0x00, 0xff,
  0x01, 0x03, 0xff, 0xfa, 0xfe, 0xff, 0x00, 0xfa, 0xfb, 0x03, 0xfe, 0xfc,
  0x00, 0xfd, 0xfa, 0xfc, 0xfe, 0x05, 0xfc, 0xfc, 0x01, 0xfb, 0xfb, 0x01,
  0xfb, 0x02, 0xfc, 0xfa, 0xfc, 0xff, 0x02, 0x01, 0xfe, 0xfc, 0xfb, 0xf9,
  0xfc, 0x00, 0xfb, 0x04, 0xfb, 0x02, 0x02, 0x04, 0x05, 0xff, 0x05, 0x02,
  0xf9, 0xfb, 0xfb, 0xfe, 0x02, 0xfc, 0xfd, 0xf9, 0xfd, 0x04, 0x03, 0x00,
  0xff, 0x03, 0x01, 0xfe, 0x02, 0xfd, 0xf9, 0x01, 0xfa, 0x00, 0xfe, 0xf9,
  0x00, 0x04, 0xfe, 0xfd, 0xfe, 0xfa, 0xfb, 0x05, 0x02, 0x02, 0xf9, 0xfa,
  0x00, 0xff, 0x04, 0x00, 0xfc, 0xfe, 0xfc, 0xf9, 0x01, 0x04, 0xfd, 0xf9,
  0x03, 0x03, 0x00, 0xfe, 0xfe, 0xfb, 0xfe, 0x00, 0xff, 0x05, 0x01, 0xfb,
  0x03, 0xfc, 0x06, 0x00, 0x10, 0x04, 0xff, 0x06, 0x00, 0x08, 0xfb, 0x05,
  0x03, 0xf8, 0xfe, 0xff, 0x07, 0x0c, 0x02, 0x06, 0xfe, 0x03, 0x03, 0xfe,
  0x06, 0xfa, 0x06, 0x00, 0xfb, 0xfe, 0x07, 0x01, 0x00, 0x05, 0xfc, 0x04,
  0x06, 0x04, 0xfd, 0xfc, 0xfe, 0x0b, 0x00, 0xfd, 0xfa, 0xfd, 0x05, 0x05,
  0x00, 0x01, 0x03, 0x02, 0x05, 0x02, 0x11, 0x02, 0x0c, 0x0b, 0x03, 0x00,
  0x04, 0x00, 0x05, 0x02, 0x05, 0x07, 0xfd, 0x01, 0xff, 0x01, 0xff, 0x02,
  0x02, 0x03, 0xfe, 0x00, 0x0a, 0x07, 0x00, 0x05, 0xfc, 0x04, 0xf2, 0xff,
  0x00, 0x04, 0x07, 0xfe, 0x04, 0x05, 0xff, 0x01, 0x01, 0xff, 0x03, 0x03,
  0x01, 0xf9, 0x08, 0x01, 0x02, 0xfd, 0xff, 0x08, 0x02, 0xfd, 0x02, 0x02,
  0x03, 0x0a, 0x06, 0x0b, 0x16, 0x02, 0x05, 0xfd, 0xff, 0x03, 0xfd, 0xfe,
  0x02, 0x01, 0xff, 0xff, 0x01, 0x02, 0xfe, 0x01, 0x06, 0x05, 0x00, 0x05,
  0x13, 0x03, 0xff, 0xfe, 0xff, 0x03, 0x00, 0xfe, 0x03, 0x04, 0xff, 0xfc,
  0x13, 0xfe, 0xff, 0xff, 0x02, 0x00, 0x00, 0x06, 0x03, 0xfe, 0xff, 0xfc,
  0xfd, 0xfc, 0x08, 0x04, 0x02, 0xf8, 0xfd, 0xfa, 0x04, 0x01, 0x01, 0xfb,
  0x02, 0x10, 0xf7, 0x02, 0x06, 0x04, 0xff, 0xfa, 0x04, 0xfc, 0xff, 0x04,
  0xfe, 0xfe, 0x13, 0xfc, 0x0f, 0xf9, 0xfe, 0xff, 0x04, 0x02, 0xfe, 0xfd,
  0xff, 0x01, 0xfc, 0x03, 0xfa, 0xf6, 0x07, 0x01, 0xfb, 0x03, 0x03, 0xff,
  0x0f, 0x05, 0x05, 0x07, 0xfd, 0xfc, 0x02, 0x08, 0x03, 0xfa, 0xf9, 0x05,
  0x02, 0x03, 0xfc, 0xfd, 0x06, 0xfc, 0x05, 0xfc, 0xfd, 0x06, 0x02, 0x03,
  0xff, 0x03, 0x01, 0x05, 0x04, 0xfc, 0x04, 0xff, 0x00, 0x0b, 0x04, 0x0d,
  0x0c, 0x04, 0xfd, 0x07, 0xfe, 0x02, 0x05, 0x04, 0x02, 0x05, 0xfb, 0xfd,
  0xfa, 0x04, 0x05, 0xfe, 0xfe, 0x01, 0x03, 0x01, 0x01, 0x05, 0xfe, 0x06,
  0xff, 0xff, 0xfc, 0x05, 0xfc, 0xfc, 0x03, 0x02, 0xfc, 0xfb, 0xfa, 0x02,
  0xfc, 0xfa, 0x01, 0xfd, 0xfe, 0x04, 0x00, 0x02, 0xff, 0x03, 0x02, 0x05,
  0x03, 0x03, 0x02, 0xfb, 0x01, 0xff, 0x01, 0x03, 0x02, 0xfb, 0xfb, 0xfb,
  0xff, 0x01, 0x03, 0xfc, 0xfc, 0x01, 0xfb, 0x01, 0x01, 0xfc, 0xfd, 0x00,
  0xfb, 0xff, 0x00, 0xff, 0x00, 0x02, 0xfd, 0x02, 0xfb, 0xfb, 0xfd, 0x02,
  0xff, 0xfb, 0x01, 0x03, 0x00, 0x00, 0x05, 0x04, 0x01, 0xfe, 0x01, 0x04,
  0xfe, 0xfc, 0x01, 0xfe, 0x03, 0xff, 0xfe, 0x00, 0xfd, 0xff, 0x03, 0x01,
  0x03, 0x06, 0xfc, 0x05, 0xfb, 0x04, 0x05, 0x03, 0x00, 0xff, 0x02, 0xfb,
  0x01, 0xfd, 0xfe, 0xff, 0x04, 0x02, 0x00, 0xff, 0xfb, 0x00, 0x00, 0x00,
  0x03, 0x05, 0xfd, 0x01, 0xfc, 0xfe, 0x03, 0x02, 0x03, 0xfe, 0xfd, 0x02,
  0x04, 0x01, 0x05, 0x02, 0x0a, 0xfa, 0xff, 0x06, 0xfb, 0xfa, 0xfb, 0xfc,
  0x02, 0xfe, 0x02, 0x04, 0xff, 0xfb, 0x05, 0xfd, 0xf8, 0xff, 0x0c, 0x0b,
  0x02, 0x00, 0x00, 0xfd, 0xfd, 0xfe, 0xff, 0x00, 0x06, 0xfa, 0xfe, 0xf7,
  0x03, 0x01, 0x03, 0xfe, 0x00, 0xfc, 0xfd, 0xff, 0xfd, 0x03, 0xfa, 0x01,
  0x04, 0xff, 0xff, 0x01, 0xfb, 0xff, 0x02, 0xf9, 0xfb, 0xfd, 0xf8, 0x00,
  0xfa, 0x00, 0x00, 0xfb, 0xf3, 0xf6, 0xfa, 0xfc, 0xff, 0xfc, 0xf9, 0xfd,
  0xfc, 0xf9, 0x01, 0xf8, 0x03, 0xff, 0xfb, 0xfe, 0xfd, 0x02, 0xfb, 0x03,
  0xfb, 0x01, 0xfd, 0x06, 0xfd, 0x02, 0x03, 0xfc, 0xfd, 0x00, 0x03, 0xfc,
  0xfd, 0x06, 0x01, 0xfa, 0x02, 0x04, 0xf9, 0xf6, 0xf9, 0xff, 0x19, 0xfe,
  0xfe, 0xfd, 0xfb, 0x03, 0xfe, 0xfd, 0x03, 0xfd, 0xfb, 0x02, 0xfd, 0x01,
  0xfb, 0xfe, 0xf9, 0xff, 0xfd, 0x00, 0x00, 0x00, 0x00, 0x02, 0x07, 0x06,
  0x15, 0xfc, 0xfc, 0x01, 0xfd, 0x04, 0xfe, 0x05, 0xfd, 0x02, 0xff, 0xfb,
  0x11, 0x03, 0x08, 0x00, 0xff, 0xfe, 0x08, 0x06, 0xfe, 0x05, 0x06, 0xfe,
  0x02, 0x03, 0x00, 0x09, 0x08, 0xfa, 0x05, 0xff, 0xff, 0x02, 0x04, 0xff,
  0x01, 0x19, 0xf9, 0x01, 0x04, 0x02, 0x07, 0xfe, 0x00, 0xf9, 0x00, 0xfb,
  0xfe, 0x06, 0x19, 0xfc, 0x12, 0x01, 0x02, 0xfd, 0x04, 0xfb, 0x03, 0x04,
  0xfd, 0x03, 0x02, 0x03, 0xfc, 0xf9, 0xff, 0x04, 0x01, 0x01, 0x02, 0x06,
  0x0a, 0x02, 0x02, 0x06, 0x04, 0x06, 0xfc, 0xfd, 0xfe, 0xff, 0x05, 0x04,
  0x02, 0xff, 0x02, 0x00, 0x00, 0x05, 0x01, 0x02, 0x01, 0x04, 0x05, 0x00,
  0xfd, 0xff, 0x02, 0x04, 0x02, 0x03, 0x01, 0x00, 0x01, 0x09, 0x08, 0x15,
  0x10, 0xfd, 0x01, 0x06, 0xff, 0x08, 0xfd, 0xfb, 0xff, 0x04, 0xfe, 0xfc,
  0x00, 0xfb, 0xff, 0x02, 0xfc, 0x02, 0x00, 0x05, 0xff, 0xfa, 0xfc, 0xff,
  0xff, 0xfb, 0xfe, 0x02, 0x02, 0xfa, 0xff, 0xfd, 0xfb, 0xfc, 0x02, 0xff,
  0xf9, 0xfd, 0xf9, 0x01, 0xfc, 0xf8, 0xfe, 0xfd, 0xfb, 0xfe, 0xf8, 0xf8,
  0x03, 0xfc, 0x02, 0xf9, 0xfe, 0x03, 0x01, 0xfb, 0xfe, 0xfe, 0x06, 0xf7,
  0x01, 0xfd, 0x05, 0xff, 0x05, 0xff, 0x05, 0xff, 0xfd, 0xfe, 0xfc, 0x00,
  0xfb, 0xf8, 0xf9, 0x05, 0xfc, 0x01, 0xff, 0xfc, 0x02, 0x02, 0x05, 0x00,
  0x03, 0xfc, 0x06, 0x00, 0x02, 0x01, 0x03, 0x01, 0x00, 0x01, 0x06, 0x01,
  0x01, 0x00, 0xff, 0x01, 0xff, 0xff, 0xff, 0xfd, 0xf7, 0x05, 0xfe, 0xf9,
  0x02, 0xfc, 0xf8, 0x03, 0x01, 0x02, 0x05, 0xfb, 0xfd, 0x02, 0xf9, 0xfb,
  0xfd, 0xfc, 0xfe, 0x02, 0xfc, 0xfa, 0x02, 0xf7, 0xfe, 0xfd, 0xfb, 0xff,
  0xff, 0xfb, 0xf9, 0xff, 0x00, 0x04, 0xf9, 0xfc, 0xfb, 0xf9, 0x01, 0x03,
  0xfd, 0x03, 0xfe, 0xff, 0x03, 0xfc, 0x03, 0x00, 0xfb, 0xfa, 0x03, 0x01,
  0xff, 0xfe, 0x00, 0x03, 0xfb, 0x04, 0x03, 0xfb, 0x03, 0xfc, 0xfd, 0xfd,
  0x01, 0xf9, 0x01, 0xfa, 0x02, 0x02, 0xf9, 0xfe, 0x01, 0x03, 0xfb, 0xff,
  0x03, 0x03, 0x04, 0xfb, 0x02, 0x04, 0x05, 0xfd, 0x01, 0x01, 0xfb, 0x02,
  0x02, 0xff, 0xfb, 0xf9, 0x04, 0xfd, 0xf9, 0x02, 0xf9, 0x03, 0x02, 0xfb,
  0x00, 0x04, 0xfd, 0x04, 0x05, 0x01, 0x04, 0x01, 0x03, 0xfa, 0xfd, 0x00,
  0xfc, 0xff, 0x05, 0xfc, 0xff, 0x03, 0xfe, 0xfc, 0x01, 0xff, 0xfb, 0xff,
  0xfc, 0xff, 0x00, 0x02, 0xfa, 0xfe, 0x05, 0x02, 0xf9, 0xfc, 0x00, 0xff,
  0xfd, 0x00, 0x04, 0xfc, 0x03, 0xff, 0xfd, 0xfe, 0xfe, 0xfc, 0x00, 0x00,
  0xfe, 0x01, 0x03, 0x01, 0xfe, 0xfc, 0xfb, 0xfc, 0xfc, 0xfa, 0x00, 0x03,
  0x05, 0xfa, 0x00, 0xfd, 0x05, 0xfe, 0xfb, 0x06, 0x00, 0xfa, 0x00, 0xfb,
  0xfe, 0xfe, 0xfd, 0x03, 0x01, 0x03, 0xff, 0x01, 0x03, 0xff, 0x01, 0x02,
  0xff, 0x00, 0xfc, 0x00, 0x02, 0x03, 0xfc, 0xfa, 0xfe, 0x02, 0xfd, 0xf9,
  0x04, 0xfb, 0xfd, 0xfb, 0x01, 0xfa, 0xff, 0x03, 0x05, 0x04, 0xfa, 0x05,
  0x05, 0xfe, 0x03, 0xfd, 0xfc, 0xfb, 0x02, 0xff, 0x00, 0xfa, 0xfa, 0xfd,
  0xff, 0xfe, 0x01, 0x01, 0x02, 0xfa, 0x02, 0xff, 0x03, 0x00, 0xff, 0x03,
  0x06, 0x02, 0xf9, 0x01, 0x02, 0xf9, 0xfa, 0xfe, 0xf9, 0xf9, 0xfe, 0x01,
  0x03, 0x02, 0xfe, 0xfe, 0xfd, 0x04, 0x02, 0xf8, 0xfb, 0xfa, 0x01, 0xf9,
  0x03, 0x03, 0xff, 0xf8, 0x00, 0x00, 0xfb, 0xfc, 0xff, 0xfe, 0xfd, 0x05,
  0xff, 0x02, 0xf9, 0xfe, 0xfa, 0xfc, 0xfd, 0xff, 0x04, 0xfd, 0xfa, 0xfd,
  0xfa, 0xfe, 0x03, 0x02, 0xf9, 0xf9, 0xff, 0xfb, 0x05, 0xf8, 0xfb, 0xfc,
  0x05, 0xfc, 0xfc, 0x03, 0x03, 0x01, 0x03, 0xfb, 0xf9, 0x01, 0xfe, 0xfd,
  0x04, 0x00, 0x01, 0x01, 0x03, 0x02, 0xfe, 0x06, 0x01, 0xf9, 0x01, 0x04,
  0x04, 0x02, 0xfa, 0x01, 0x01, 0xff, 0x03, 0xfd, 0xff, 0x01, 0x01, 0x02,
  0x09, 0x02, 0xfb, 0x09, 0x01, 0x04, 0x0a, 0x06, 0x00, 0xf7, 0x05, 0xfb,
  0x02, 0x02, 0x07, 0x00, 0x02, 0xfd, 0xff, 0x02, 0xfb, 0xff, 0xf0, 0x03,
  0xef, 0xfc, 0x04, 0xff, 0x05, 0x00, 0xfc, 0xfd, 0x05, 0x02, 0xff, 0xf8,
  0xfd, 0xfe, 0x03, 0xfe, 0x00, 0xfe, 0x05, 0xfe, 0xf5, 0x08, 0x01, 0xff,
  0xfc, 0xfb, 0x06, 0x01, 0xfd, 0xff, 0x03, 0x04, 0x03, 0xfc, 0x03, 0xfe,
  0x01, 0xff, 0x05, 0x01, 0xfd, 0x07, 0xfe, 0xff, 0xff, 0xf8, 0x00, 0xfb,
  0x04, 0x01, 0xfe, 0x00, 0xfe, 0x00, 0x00, 0xf9, 0xf0, 0x00, 0x02, 0x03,
  0xff, 0x03, 0x03, 0x05, 0xff, 0xfe, 0x02, 0xfb, 0x01, 0xf6, 0xfb, 0x01,
  0x05, 0xf9, 0xfd, 0x01, 0xfa, 0xfb, 0x01, 0x00, 0x15, 0xed, 0xfd, 0x05,
  0x04, 0xf2, 0x05, 0x05, 0xfd, 0xfa, 0x05, 0x0e, 0xf8, 0xfc, 0x01, 0xfc,
  0xfb, 0x02, 0x00, 0x01, 0xfc, 0x07, 0xe9, 0xfe, 0x06, 0x07, 0xfb, 0x1c,
  0x01, 0x01, 0x02, 0x00, 0x04, 0xf2, 0x09, 0xfd, 0x01, 0x02, 0x03, 0x10,
  0x01, 0x09, 0x04, 0xff, 0x00, 0xf2, 0xf9, 0x04, 0xf8, 0xfc, 0x18, 0x01,
  0x06, 0x04, 0x09, 0xfe, 0x11, 0x06, 0x02, 0x00, 0x0b, 0x09, 0x0c, 0xfe,
  0x00, 0x02, 0x01, 0xee, 0xf4, 0xfa, 0x00, 0x0d, 0x01, 0xfe, 0x10, 0x03,
  0x01, 0x09, 0x00, 0xf3, 0xf2, 0xfc, 0xfa, 0x03, 0x00, 0x02, 0xfc, 0x03,
  0x04, 0x01, 0xf8, 0xfa, 0x05, 0xfe, 0x22, 0xf6, 0xff, 0x06, 0x01, 0xf7,
  0x04, 0xf1, 0x01, 0xf4, 0x00, 0x0d, 0xfd, 0x01, 0xfe, 0xfd, 0x00, 0xff,
  0x04, 0xfc, 0x10, 0xf9, 0xfb, 0x00, 0x02, 0x01, 0xfb, 0x02, 0x02, 0x01,
  0xfe, 0x03, 0xfb, 0xfe, 0xfe, 0xf9, 0xfc, 0x02, 0x01, 0x01, 0xfe, 0xfc,
  0xfa, 0xfe, 0xf9, 0xfb, 0x01, 0xfe, 0xfb, 0xfa, 0x03, 0x01, 0xfc, 0x01,
  0x04, 0x04, 0x02, 0xfd, 0x02, 0x00, 0xff, 0xff, 0xfe, 0x01, 0xfb, 0xff,
  0x03, 0xfb, 0x02, 0xfc, 0xfd, 0xfc, 0x02, 0xff, 0x03, 0xfa, 0x03, 0xfd,
  0xfd, 0x00, 0xfd, 0xfb, 0x03, 0xff, 0xfa, 0x04, 0x01, 0x01, 0xfa, 0x00,
  0x02, 0xfe, 0x04, 0x00, 0xfb, 0xfb, 0x02, 0x01, 0x02, 0xfb, 0xff, 0xff,
  0xfa, 0x03, 0x05, 0xfb, 0x00, 0x04, 0x01, 0xfd, 0x00, 0x02, 0xfd, 0xfa,
  0xfe, 0xfb, 0x01, 0x02, 0xfd, 0xfe, 0x03, 0x00, 0xfd, 0x04, 0xfe, 0xff,
  0xf9, 0x05, 0xfe, 0xfc, 0xfa, 0xf9, 0x00, 0xfb, 0xfb, 0xf9, 0xfb, 0x03,
  0x01, 0xff, 0xfb, 0xff, 0xff, 0x04, 0xfb, 0xfb, 0x05, 0xff, 0x01, 0x02,
  0xfc, 0x01, 0xfd, 0xff, 0x01, 0x04, 0x02, 0x00, 0x00, 0xf9, 0xfd, 0x05,
  0xfd, 0xfe, 0x05, 0xfd, 0x04, 0x04, 0xfb, 0x00, 0x00, 0x03, 0xfa, 0xfa,
  0xf9, 0x00, 0x01, 0xfe, 0x01, 0xfe, 0x00, 0xfc, 0x00, 0xfd, 0xfb, 0x03,
  0x04, 0xfd, 0xf9, 0xfc, 0x01, 0xff, 0x02, 0xfe, 0xfd, 0xfb, 0xfc, 0xfa,
  0xfd, 0x04, 0x02, 0x00, 0xfd, 0xfe, 0x01, 0xfc, 0xfb, 0xfe, 0xfc, 0xfd,
  0xfa, 0x01, 0x03, 0xfa, 0xfd, 0xfd, 0xfd, 0xff, 0xff, 0x02, 0x04, 0x03,
  0xfe, 0xf9, 0xff, 0xfc, 0x02, 0x00, 0xff, 0xff, 0xfc, 0xfd, 0xfe, 0x02,
  0xfa, 0xfe, 0xfc, 0xfc, 0x00, 0xf9, 0xff, 0x00, 0x01, 0xfc, 0xfc, 0xfe,
  0xfd, 0xfe, 0xfd, 0xfd, 0xfe, 0xff, 0xfd, 0xfc, 0x02, 0x01, 0x02, 0xfd,
  0x03, 0x04, 0xfe, 0xff, 0xfb, 0xfb, 0xfc, 0xfd, 0x00, 0x00, 0xfd, 0xfd,
  0xfd, 0xff, 0x01, 0xff, 0xfb, 0xfa, 0x02, 0xfc, 0xfc, 0xf9, 0x02, 0xfb,
  0x06, 0x03, 0x03, 0x07, 0x02, 0xf9, 0x05, 0x05, 0x01, 0x04, 0xfd, 0x01,
  0xfb, 0xf8, 0xfd, 0xfc, 0x04, 0xf9, 0xfe, 0xf9, 0xfc, 0x01, 0xfe, 0xfc,
  0x04, 0x04, 0x06, 0xfa, 0xfe, 0x01, 0xfb, 0xff, 0x05, 0x01, 0x00, 0xf7,
  0x05, 0xfd, 0xff, 0xfb, 0xfc, 0xfa, 0x03, 0x00, 0x00, 0x06, 0xfd, 0xfc,
  0xfa, 0xfa, 0xfc, 0xfe, 0xfb, 0xfd, 0x02, 0x00, 0xff, 0xf9, 0xfe, 0xfb,
  0x02, 0x03, 0xfa, 0x03, 0xf7, 0x01, 0xfc, 0x0a, 0xf9, 0xfe, 0x03, 0xfb,
  0xff, 0xfa, 0xfc, 0xff, 0xfc, 0xfe, 0x04, 0xfb, 0xff, 0xfe, 0x02, 0x05,
  0x03, 0xf9, 0xfc, 0xfe, 0xfb, 0x03, 0xfa, 0xff, 0x08, 0x04, 0x06, 0x03,
  0x04, 0x04, 0x04, 0xfb, 0x07, 0x06, 0xfc, 0xfa, 0xfc, 0xff, 0x06, 0xfa,
  0x05, 0x02, 0x01, 0xfe, 0xfd, 0xfe, 0x02, 0x03, 0xfb, 0x04, 0x02, 0x05,
  0xfd, 0x02, 0xfb, 0xff, 0x00, 0xfe, 0xfd, 0xfc, 0x05, 0xfd, 0x02, 0xfe,
  0x13, 0x07, 0x06, 0xfd, 0x05, 0x0b, 0x02, 0xfb, 0xfd, 0xfb, 0xfe, 0x04,
  0x0d, 0x08, 0x09, 0x03, 0x06, 0x06, 0x07, 0x03, 0x06, 0x03, 0x01, 0x05,
  0x05, 0x02, 0x06, 0xff, 0x08, 0xff, 0x05, 0xfb, 0x05, 0xfd, 0x03, 0x03,
  0xfd, 0x13, 0xfd, 0x06, 0xfe, 0xfd, 0x00, 0xfc, 0xff, 0x00, 0xfe, 0xff,
  0xfd, 0x02, 0x11, 0x06, 0x13, 0x05, 0x03, 0xff, 0x05, 0xfb, 0x00, 0xfc,
  0xfb, 0xff, 0x01, 0xfd, 0x01, 0x02, 0x02, 0xfe, 0x01, 0x00, 0x03, 0x04,
  0x13, 0x0a, 0x00, 0x09, 0xfc, 0xfb, 0x02, 0x01, 0x01, 0x03, 0xfa, 0x06,
  0x04, 0x04, 0xff, 0x04, 0x06, 0x02, 0xfd, 0xfb, 0x05, 0x04, 0xff, 0x02,
  0x02, 0x00, 0xfb, 0x02, 0xfc, 0x00, 0xfe, 0xfc, 0x01, 0x05, 0x03, 0x17,
  0x11, 0xfd, 0xfe, 0x08, 0xfd, 0x02, 0x04, 0x03, 0x00, 0x05, 0xf9, 0xff,
  0xfb, 0x03, 0x04, 0x03, 0xfe, 0xff, 0x05, 0x08, 0x16, 0x07, 0x02, 0xfc,
  0xfe, 0x0a, 0x05, 0xfc, 0xfb, 0xfd, 0x03, 0x01, 0x0d, 0x06, 0x07, 0xfc,
  0x01, 0xff, 0x00, 0x07, 0x07, 0x08, 0x05, 0xfd, 0x03, 0x03, 0xff, 0x02,
  0x07, 0xfa, 0xfe, 0xf9, 0xff, 0x02, 0xfd, 0x01, 0xfc, 0x13, 0xfc, 0xff,
  0xff, 0xff, 0x05, 0x03, 0x05, 0x01, 0xfc, 0x00, 0x03, 0x07, 0x19, 0xfd,
  0x13, 0x03, 0xfe, 0xfc, 0xfd, 0xff, 0xfd, 0xfd, 0x01, 0xff, 0x02, 0x03,
  0x01, 0x00, 0xfe, 0xff, 0x00, 0xfc, 0x02, 0xfc, 0x10, 0xff, 0x05, 0x01,
  0x04, 0x01, 0x02, 0x00, 0xfd, 0xff, 0x06, 0x04, 0x05, 0x03, 0xfa, 0xfe,
  0x03, 0x05, 0x06, 0x02, 0xff, 0xfc, 0x01, 0x00, 0xff, 0x04, 0xfd, 0x05,
  0x02, 0xff, 0x03, 0x05, 0x02, 0x09, 0x09, 0x11, 0x12, 0x00, 0x02, 0x01,
  0x00, 0xfe, 0x03, 0x01, 0xfe, 0xfe, 0xfa, 0xff, 0xfc, 0xfe, 0x05, 0xfd,
  0xfe, 0x02, 0xff, 0xfe, 0x13, 0xfb, 0xfb, 0xfd, 0xff, 0x0c, 0xfe, 0x03,
  0xfd, 0xff, 0xff, 0x02, 0x14, 0x04, 0x09, 0x00, 0x03, 0x07, 0x06, 0xff,
  0xfd, 0x09, 0xfe, 0x06, 0xfe, 0x01, 0x00, 0xfe, 0x0d, 0xff, 0xfe, 0x05,
  0x02, 0x00, 0x0a, 0x01, 0x03, 0x13, 0xf9, 0xfd, 0x03, 0x03, 0xff, 0xfe,
  0xfc, 0xf8, 0x06, 0x02, 0x03, 0x08, 0x13, 0x03, 0x05, 0xfc, 0x00, 0x04,
  0x02, 0x00, 0xfc, 0x01, 0xfe, 0x03, 0x02, 0x07, 0x01, 0xfd, 0xfd, 0x02,
  0x02, 0xfd, 0x01, 0x04, 0x13, 0x04, 0x04, 0x02, 0x01, 0x00, 0xf0, 0xfe,
  0x02, 0xff, 0xfd, 0x03, 0x00, 0x03, 0x05, 0x03, 0xff, 0x00, 0x00, 0x03,
  0xfb, 0xfd, 0x01, 0xfd, 0xfe, 0x07, 0x02, 0x02, 0x03, 0x04, 0x02, 0x00,
  0x04, 0x0e, 0x04, 0x15, 0x06, 0xf8, 0x05, 0xfd, 0x00, 0x06, 0x01, 0x04,
  0x04, 0xfd, 0xf6, 0x00, 0xfe, 0xfb, 0xfc, 0xfd, 0x01, 0x04, 0x02, 0xff,
  0xf8, 0x04, 0x05, 0xfe, 0x01, 0xfc, 0xff, 0xfe, 0xfc, 0xf7, 0xfe, 0x00,
  0xfd, 0x06, 0xf8, 0xf9, 0x03, 0x00, 0x06, 0x02, 0xff, 0xfe, 0x04, 0x03,
  0x01, 0x01, 0xfa, 0xf7, 0x0e, 0xf9, 0x02, 0x05, 0x04, 0x06, 0xfe, 0xfb,
  0xfe, 0xf8, 0xff, 0xff, 0xfc, 0xfe, 0x04, 0xfa, 0x00, 0x03, 0x04, 0x03,
  0x02, 0xfc, 0xfa, 0x03, 0xfd, 0xf7, 0xfa, 0xfc, 0x02, 0xfe, 0xfd, 0x01,
  0x04, 0x02, 0x00, 0xfd, 0x04, 0x01, 0x08, 0x02, 0x01, 0x00, 0x05, 0xf7,
  0x00, 0xfa, 0x00, 0x03, 0xfd, 0x03, 0x01, 0xfc, 0xfd, 0xf9, 0x05, 0xf6,
  0xff, 0xfc, 0xfd, 0xfe, 0x02, 0xff, 0xfd, 0xfd, 0x04, 0xff, 0xfd, 0xfc,
  0x01, 0xf9, 0x01, 0xfd, 0xff, 0xfd, 0x02, 0xf7, 0x05, 0xfd, 0x04, 0xf8,
  0xfd, 0x05, 0xfe, 0xfc, 0xfd, 0xfa, 0xfa, 0xfe, 0x03, 0x00, 0x09, 0xf9,
  0x03, 0x03, 0x01, 0x04, 0xff, 0x01, 0xff, 0xff, 0xfb, 0xfc, 0xfd, 0x06,
  0xfe, 0xfb, 0xff, 0x03, 0x05, 0x02, 0xfc, 0xfb, 0x00, 0xfc, 0x04, 0xfe,
  0xf9, 0xfd, 0x07, 0x07, 0xfd, 0xfd, 0x00, 0xfd, 0xfd, 0x00, 0x00, 0xfd,
  0x0a, 0xfe, 0xfc, 0xfe, 0x01, 0xfb, 0xff, 0x05, 0x03, 0x00, 0x00, 0xf9,
  0xfb, 0x00, 0xfc, 0xfe, 0x00, 0x02, 0x00, 0xfc, 0x01, 0xfd, 0xfa, 0xf9,
  0xfa, 0x04, 0x01, 0xfb, 0xfd, 0x06, 0x01, 0x02, 0x03, 0x02, 0xff, 0x07,
  0xfc, 0xff, 0xff, 0xfb, 0x03, 0xff, 0xfc, 0x01, 0x04, 0x00, 0xfb, 0xfe,
  0xfb, 0x02, 0x04, 0xff, 0xfe, 0xfd, 0xfe, 0x02, 0xfe, 0x03, 0xfe, 0x03,
  0x02, 0x04, 0xff, 0x05, 0x01, 0x04, 0xfe, 0xfe, 0x08, 0x09, 0xf9, 0xfb,
  0xfd, 0xfb, 0x01, 0x03, 0xff, 0xfd, 0xff, 0xfd, 0xfe, 0xff, 0x02, 0x0a,
  0x03, 0x00, 0xfb, 0x04, 0x01, 0x00, 0x01, 0xfd, 0xff, 0xfb, 0x03, 0xfd,
  0xfb, 0xfe, 0xfd, 0xfd, 0xfa, 0x01, 0x01, 0x01, 0xfb, 0xfb, 0xfb, 0xfc,
  0x06, 0x01, 0x00, 0x02, 0x04, 0xfb, 0x03, 0x04, 0x01, 0x00, 0x02, 0xff,
  0xfa, 0xfa, 0x04, 0xf9, 0xfc, 0xfc, 0xfa, 0x01, 0xfd, 0x03, 0xfa, 0xf9,
  0xfe, 0xfd, 0xfb, 0xfc, 0xfe, 0xfc, 0x02, 0xfc, 0x02, 0xfb, 0x00, 0xff,
  0x02, 0xfe, 0xff, 0xfd, 0x04, 0xfe, 0x02, 0x00, 0x02, 0x02, 0xfd, 0x02,
  0x01, 0x03, 0x04, 0xfd, 0x00, 0xfe, 0x02, 0x05, 0xff, 0xfc, 0xfd, 0xfd,
  0xff, 0x01, 0x02, 0xfb, 0x03, 0xfd, 0x01, 0xfb, 0x00, 0xfc, 0xff, 0x03,
  0x00, 0xfd, 0x02, 0x03, 0x02, 0xff, 0xfd, 0x00, 0x00, 0x02, 0xff, 0x03,
  0x05, 0x02, 0xfd, 0x00, 0xfe, 0x02, 0x01, 0xfa, 0x02, 0xfb, 0xfe, 0xfe,
  0x01, 0x00, 0x02, 0xf9, 0xf9, 0x02, 0x01, 0x05, 0xfa, 0xfb, 0xfc, 0x05,
  0x02, 0x00, 0x01, 0xfa, 0x06, 0x04, 0xfe, 0x00, 0xfd, 0x00, 0xfd, 0x02,
  0xfd, 0xfb, 0x01, 0x04, 0xfb, 0x00, 0x04, 0x04, 0x05, 0xfc, 0x01, 0x04,
  0xfc, 0x02, 0x04, 0xff, 0x00, 0x01, 0x00, 0xfd, 0x00, 0x02, 0xfb, 0xf9,
  0x02, 0x02, 0x03, 0xfd, 0x01, 0xf8, 0x03, 0xfd, 0xfd, 0x00, 0xfe, 0xfb,
  0x00, 0x07, 0xfc, 0xfb, 0x05, 0x00, 0xfd, 0x02, 0xff, 0x03, 0xfb, 0xfa,
  0xfb, 0xfe, 0x03, 0x01, 0xfa, 0xfb, 0xfb, 0xfc, 0x01, 0xfd, 0xf9, 0x00,
  0xfd, 0x01, 0xfc, 0x00, 0xfc, 0xf9, 0x01, 0xfc, 0xff, 0x00, 0x01, 0xfb,
  0xfd, 0xff, 0x01, 0x03, 0xfd, 0xfe, 0x03, 0x03, 0xfe, 0xff, 0xfd, 0xfa,
  0xfd, 0x05, 0xfb, 0x00, 0xff, 0xfd, 0xfb, 0xfe, 0x05, 0xfc, 0x01, 0x01,
  0x03, 0x02, 0xfe, 0xfb, 0xfe, 0xf9, 0xfe, 0xf9, 0x02, 0xf9, 0x03, 0xfd,
  0xfe, 0xfe, 0x02, 0x03, 0x00, 0xfb, 0xfa, 0xfc, 0xfc, 0x02, 0xfa, 0xfb,
  0x02, 0xf2, 0xfe, 0xfc, 0x02, 0xfd, 0x04, 0x06, 0xf2, 0x11, 0x06, 0xfd,
  0x07, 0xee, 0x00, 0xfc, 0x00, 0xf9, 0xfe, 0x03, 0x02, 0xfc, 0xfe, 0x03,
  0x03, 0xf9, 0xfb, 0xfb, 0x07, 0xee, 0xfb, 0xfa, 0x00, 0xfb, 0xf6, 0x0b,
  0x24, 0xff, 0x04, 0x21, 0xfb, 0x03, 0x2b, 0x00, 0x05, 0xf9, 0x0c, 0x04,
  0xff, 0x04, 0xfc, 0xfb, 0x03, 0xfb, 0xfd, 0xfa, 0x02, 0xf4, 0xfb, 0x01,
  0xf9, 0x03, 0x05, 0x02, 0x01, 0x02, 0xff, 0x04, 0x0a, 0x02, 0xff, 0xfb,
  0xfa, 0xff, 0x10, 0x05, 0xfd, 0xfe, 0x01, 0xee, 0xee, 0x03, 0x03, 0xfa,
  0x01, 0xfd, 0x1b, 0xfc, 0x03, 0x07, 0xfc, 0x17, 0xf9, 0x02, 0x03, 0xfe,
  0xfb, 0xfe, 0xfb, 0xfb, 0x02, 0xfe, 0x16, 0x04, 0xfc, 0x02, 0x05, 0xf5,
  0xfa, 0xff, 0xfd, 0xf3, 0x00, 0xfa, 0x09, 0xfb, 0xf6, 0x03, 0xfa, 0xfd,
  0xfe, 0x08, 0x04, 0x03, 0xfc, 0xff, 0x1e, 0xfa, 0xff, 0x02, 0xff, 0x06,
  0x04, 0xfd, 0x00, 0x00, 0xf9, 0x01, 0x00, 0x04, 0x01, 0x07, 0x05, 0x01,
  0x02, 0x01, 0xfc, 0xfb, 0x02, 0x04, 0x05, 0x00, 0xfd, 0xff, 0x02, 0x01,
  0xfd, 0x00, 0xfe, 0xfc, 0x02, 0xff, 0x00, 0x03, 0xfd, 0xfd, 0x03, 0x03,
  0xff, 0xff, 0xfd, 0xfd, 0xff, 0xfa, 0xfb, 0xff, 0xfe, 0xfe, 0x06, 0xff,
  0xfb, 0xff, 0xfe, 0x05, 0x05, 0xff, 0xfa, 0x01, 0xfe, 0x01, 0xfe, 0xfe,
  0x02, 0xfe, 0xfd, 0x02, 0x03, 0x03, 0x04, 0xff, 0xf9, 0x00, 0x03, 0x02,
  0x03, 0xfd, 0xfd, 0x03, 0x00, 0x00, 0xfd, 0x01, 0xfe, 0x05, 0x03, 0x02,
  0xff, 0x03, 0xfd, 0xfb, 0x00, 0x02, 0x04, 0xfe, 0xfd, 0x05, 0xfc, 0x05,
  0xff, 0x05, 0x01, 0xfb, 0x00, 0x00, 0xf7, 0x02, 0x03, 0xfc, 0x01, 0x01,
  0xff, 0xfa, 0xfa, 0xfd, 0xfe, 0x03, 0x06, 0x01, 0x03, 0xf9, 0xfb, 0xfd,
  0x04, 0x05, 0xfa, 0xff, 0xfb, 0xfa, 0x02, 0x03, 0xfb, 0x01, 0x01, 0x03,
  0xf5, 0xfd, 0x00, 0xfc, 0xfe, 0xff, 0xfb, 0x00, 0xfa, 0xff, 0x05, 0x00,
  0xf9, 0x06, 0x08, 0x05, 0x02, 0x01, 0x07, 0xfe, 0xff, 0xf6, 0xfa, 0x00,
  0xfd, 0xff, 0xf9, 0xf9, 0x0a, 0xfc, 0xfd, 0x09, 0x01, 0xfe, 0x04, 0x03,
  0x04, 0xf8, 0xfe, 0x01, 0xfc, 0xfe, 0x04, 0x00, 0xfa, 0x08, 0x05, 0x00,
  0x03, 0x01, 0xfd, 0x01, 0xff, 0xff, 0x03, 0xfe, 0x02, 0xff, 0x05, 0x00,
  0x06, 0x01, 0xfe, 0xfc, 0x00, 0xff, 0x08, 0xfb, 0x03, 0xfd, 0x02, 0xfb,
  0xf8, 0xff, 0x03, 0xfa, 0x04, 0x04, 0x0c, 0x04, 0x04, 0x06, 0x01, 0xf8,
  0xfd, 0x03, 0x01, 0xfd, 0xfb, 0x00, 0xff, 0x04, 0xff, 0x0b, 0xfe, 0x04,
  0xff, 0x00, 0xfd, 0x0c, 0xfd, 0x05, 0x09, 0xf4, 0x03, 0xfc, 0x05, 0xf4,
  0xfe, 0x01, 0x04, 0xff, 0x02, 0x00, 0x00, 0x00, 0xfc, 0xfc, 0x06, 0xfc,
  0xfe, 0xfa, 0x02, 0xfc, 0xfe, 0xfc, 0x03, 0xf9, 0xf4, 0xfd, 0x05, 0x03,
  0xfd, 0xf6, 0xfc, 0x01, 0x02, 0xf5, 0x04, 0xfb, 0xfa, 0xff, 0x05, 0x03,
  0xff, 0xfd, 0xf9, 0xf9, 0xfe, 0xf5, 0x02, 0x05, 0xfb, 0x06, 0xf5, 0xf7,
  0x05, 0xfb, 0x04, 0x0d, 0xfd, 0xfb, 0x09, 0xfc, 0xfd, 0xf8, 0x01, 0x05,
  0x04, 0x02, 0xfc, 0x03, 0x04, 0xfc, 0xff, 0xfb, 0xfe, 0xf5, 0xef, 0x01,
  0xf8, 0xf7, 0xfe, 0x01, 0x01, 0x00, 0x02, 0xfe, 0x03, 0x00, 0xfb, 0xfb,
  0x05, 0x02, 0x04, 0x05, 0x01, 0x01, 0x04, 0xef, 0xef, 0xfb, 0x02, 0xfb,
  0xfd, 0x04, 0x0c, 0xfd, 0x04, 0x03, 0x01, 0xfb, 0xf9, 0x05, 0xfe, 0xfb,
  0xfa, 0xff, 0x02, 0xfc, 0x00, 0x05, 0x03, 0xff, 0xfc, 0xfe, 0x08, 0xfd,
  0xfd, 0x03, 0x01, 0xf3, 0x03, 0xf4, 0xfd, 0xf1, 0xfb, 0x01, 0x04, 0xff,
  0xfa, 0xfe, 0xfc, 0xff, 0x02, 0x01, 0x08, 0x03, 0xfe, 0xfd, 0x00, 0x00,
  0xfd, 0xff, 0x04, 0xfe, 0xf2, 0x03, 0xff, 0x00, 0x04, 0xf7, 0x02, 0xfe,
  0x00, 0xf2, 0x05, 0xfc, 0xf4, 0xfd, 0x01, 0x05, 0xfe, 0x04, 0x02, 0xfe,
  0x03, 0xf6, 0xfc, 0x00, 0x02, 0x05, 0xfe, 0xfb, 0x13, 0x05, 0xfd, 0x0b,
  0x05, 0xfc, 0x19, 0xfb, 0x01, 0xea, 0x08, 0x00, 0xfd, 0x03, 0xfb, 0x01,
  0x04, 0x0f, 0xff, 0x05, 0x05, 0xf6, 0xe6, 0xfc, 0xf8, 0x02, 0x00, 0xff,
  0xfc, 0xfc, 0xfe, 0x03, 0x02, 0xfd, 0xfd, 0x00, 0x01, 0x0a, 0x06, 0x02,
  0xfc, 0xfe, 0x04, 0xfd, 0xe9, 0xff, 0xff, 0x03, 0xfb, 0x04, 0x10, 0x03,
  0x04, 0x02, 0xfc, 0x08, 0xf9, 0xfc, 0xfb, 0x00, 0x07, 0x00, 0xfe, 0x06,
  0x02, 0x05, 0x05, 0xff, 0x03, 0x01, 0x05, 0xfc, 0x05, 0x02, 0x02, 0xf7,
  0xfd, 0xf5, 0x13, 0xe5, 0xfb, 0x06, 0x03, 0x03, 0x02, 0xfa, 0x01, 0xfc,
  0xfc, 0x00, 0x00, 0x00, 0x02, 0x01, 0xfe, 0x05, 0xfb, 0xfa, 0xf7, 0xff,
  0xfc, 0xf8, 0xfe, 0xf9, 0x02, 0xf9, 0x02, 0xfd, 0xfb, 0xf7, 0x02, 0x01,
  0x01, 0xfa, 0xfe, 0xfc, 0x00, 0xfe, 0xff, 0x05, 0xfc, 0xff, 0xfb, 0xfa,
  0x00, 0xfe, 0xfa, 0xf7, 0x03, 0x00, 0xfd, 0x02, 0x03, 0xfa, 0x04, 0xff,
  0x03, 0xfb, 0x01, 0x01, 0x03, 0xff, 0xfe, 0xf8, 0x02, 0x01, 0x02, 0x00,
  0x00, 0xff, 0xf7, 0xfe, 0xf6, 0xfb, 0xfe, 0x03, 0xfc, 0xff, 0x01, 0xfe,
  0xfc, 0x02, 0xfd, 0x01, 0xf9, 0xfc, 0xfd, 0x00, 0x02, 0xf8, 0x06, 0xf7,
  0xf9, 0x00, 0x05, 0xf9, 0xfd, 0x02, 0xfd, 0x02, 0x01, 0xfb, 0xf9, 0xf6,
  0xf7, 0x03, 0x04, 0xf8, 0xff, 0x05, 0xfe, 0x05, 0xfc, 0x06, 0xfd, 0xfb,
  0xfd, 0xfe, 0xf8, 0x00, 0xf9, 0xfa, 0x03, 0xf7, 0x02, 0x00, 0xf9, 0xf7,
  0xff, 0x01, 0xfb, 0xfb, 0xfc, 0xfd, 0xfc, 0xff, 0xff, 0xfd, 0xfd, 0xfa,
  0x01, 0x02, 0x04, 0x02, 0x00, 0xfd, 0x02, 0xfb, 0xf5, 0x01, 0x05, 0x02,
  0xfe, 0xf2, 0xfd, 0x02, 0xfc, 0xfd, 0xfb, 0xfd, 0xfd, 0x04, 0x01, 0xfd,
  0x02, 0xfd, 0xfa, 0xfa, 0xfe, 0xf8, 0xfc, 0xfa, 0xff, 0x01, 0xfb, 0xfc,
  0x09, 0x03, 0x00, 0x02, 0xfe, 0xfc, 0xfc, 0xff, 0x01, 0xf3, 0xff, 0xff,
  0xfd, 0x01, 0x00, 0x01, 0xfc, 0x02, 0x05, 0x04, 0x01, 0xf9, 0xf3, 0x00,
  0xfc, 0xfc, 0x03, 0x02, 0x01, 0xfd, 0xfc, 0x00, 0x01, 0xfd, 0x04, 0xfd,
  0x04, 0x06, 0xfe, 0x03, 0x01, 0xff, 0x09, 0xf5, 0xf2, 0x00, 0xfd, 0xfa,
  0x01, 0x00, 0xff, 0x00, 0x00, 0xff, 0x05, 0x02, 0xfc, 0xfe, 0xfd, 0xff,
  0xff, 0xfc, 0x00, 0x01, 0x04, 0xfb, 0x02, 0x04, 0x00, 0x00, 0x05, 0xf5,
  0xff, 0x02, 0x0a, 0xf9, 0xfc, 0xf5, 0x01, 0xf1, 0xf6, 0x00, 0x04, 0xf9,
  0xfe, 0xf8, 0xfb, 0x03, 0x06, 0x02, 0xfd, 0x02, 0xfc, 0x03, 0xfc, 0xfb,
  0x06, 0x04, 0x04, 0x01, 0x06, 0xfa, 0x04, 0x07, 0x04, 0xfd, 0x03, 0x04,
  0xff, 0x02, 0x01, 0xff, 0x06, 0xfc, 0x07, 0xfd, 0xff, 0xff, 0x08, 0x04,
  0x02, 0xfd, 0x00, 0x05, 0xff, 0xfd, 0x05, 0x01, 0x09, 0xfb, 0x03, 0xff,
  0xfc, 0x00, 0x06, 0xfb, 0x02, 0x06, 0x00, 0x02, 0x02, 0x01, 0xff, 0x01,
  0xfb, 0xfa, 0xfb, 0x01, 0xfb, 0x01, 0x00, 0xfc, 0x01, 0xfa, 0xfb, 0x04,
  0x03, 0xfc, 0xfa, 0xfc, 0xf8, 0xfa, 0xfd, 0x00, 0xfe, 0xfb, 0xfa, 0xfd,
  0x05, 0x00, 0x00, 0xfc, 0xff, 0x07, 0x02, 0x05, 0x03, 0xfb, 0x00, 0x05,
  0xff, 0xff, 0x03, 0x04, 0xfd, 0xfb, 0x02, 0x03, 0x05, 0x02, 0xff, 0xfe,
  0x03, 0x01, 0x02, 0xfb, 0xff, 0xfe, 0x03, 0xfc, 0x00, 0x00, 0x05, 0x03,
  0x02, 0x02, 0x03, 0xfd, 0xfb, 0xfe, 0x02, 0x03, 0xff, 0xfd, 0xfb, 0xfe,
  0x01, 0xfc, 0xf8, 0x01, 0x04, 0xfa, 0xfc, 0xff, 0xfd, 0x00, 0xfd, 0x03,
  0xf4, 0x03, 0xfe, 0x02, 0xf9, 0xfc, 0xfb, 0x04, 0x01, 0xf6, 0xfc, 0x03,
  0xf0, 0xfd, 0xfb, 0xfc, 0xfc, 0x03, 0x05, 0x03, 0x03, 0xfc, 0x03, 0x04,
  0x05, 0x00, 0xfa, 0xf7, 0xff, 0x05, 0xfa, 0xfd, 0xfd, 0x06, 0xfa, 0xff,
  0xff, 0xf3, 0x05, 0x00, 0x03, 0x02, 0x01, 0x01, 0x04, 0x02, 0x03, 0xf9,
  0x02, 0xfd, 0xf4, 0xfb, 0xf8, 0x03, 0x06, 0x00, 0x03, 0x03, 0x03, 0xfc,
  0x00, 0xfa, 0xfc, 0x03, 0x00, 0x02, 0x01, 0xfe, 0xfe, 0x06, 0x07, 0xfa,
  0xf1, 0x01, 0x04, 0xfc, 0x02, 0x01, 0x09, 0xfe, 0x01, 0x05, 0x04, 0xf5,
  0xfe, 0xff, 0x02, 0xff, 0xfd, 0x03, 0xfe, 0x05, 0xfc, 0xfb, 0x01, 0xfb,
  0x02, 0x00, 0x03, 0xf6, 0x00, 0x04, 0x02, 0xf8, 0x05, 0xfb, 0xfe, 0xf6,
  0xf8, 0x06, 0x01, 0x02, 0x00, 0xfb, 0xfe, 0x02, 0x06, 0xfa, 0x04, 0x04,
  0x00, 0xfd, 0x04, 0x04, 0x05, 0xff, 0xfd, 0xfe, 0xf6, 0x2c, 0x02, 0xfc,
  0x19, 0xf3, 0x02, 0xfd, 0x01, 0xec, 0x03, 0xfc, 0xe8, 0x11, 0x04, 0x0f,
  0xfa, 0x04, 0x01, 0xfb, 0x1b, 0xf6, 0x03, 0x05, 0x04, 0x09, 0xfb, 0xe8,
  0xff, 0x01, 0x02, 0x01, 0x06, 0x02, 0x02, 0x02, 0x00, 0xed, 0xe2, 0xd5,
  0x00, 0xfc, 0x04, 0xd5, 0x00, 0x21, 0xe9, 0x01, 0x04, 0xf6, 0xf3, 0x29,
  0xf9, 0xff, 0x14, 0xfb, 0xfd, 0x02, 0xe1, 0x06, 0xe8, 0x1e, 0xfc, 0xfe,
  0xe6, 0x04, 0x07, 0x02, 0xfd, 0xee, 0xfc, 0xf5, 0xee, 0x03, 0xfc, 0xff,
  0xfe, 0x00, 0xd6, 0x00, 0x04, 0x2b, 0x17, 0xf1, 0xf6, 0x02, 0xfe, 0x01,
  0x00, 0xfd, 0xfe, 0x02, 0x05, 0xff, 0x24, 0xfb, 0xff, 0xfe, 0x0e, 0xf3,
  0x05, 0xe9, 0xff, 0xee, 0x03, 0xf1, 0x20, 0xea, 0xf7, 0x19, 0xff, 0xfb,
  0xfc, 0x03, 0xee, 0x03, 0x02, 0x00, 0x04, 0x05, 0xfe, 0xf8, 0xfe, 0x05,
  0xff, 0x02, 0xfb, 0x02, 0xf2, 0x04, 0x03, 0xfb, 0x0b, 0xfc, 0x02, 0x00,
  0x01, 0xeb, 0xfe, 0xfc, 0xef, 0xf0, 0x05, 0x0f, 0xfc, 0xfd, 0xfb, 0x05,
  0x0e, 0xf9, 0xfc, 0xfd, 0x00, 0xe5, 0xf8, 0xf4, 0x06, 0x03, 0xfc, 0xf1,
  0x01, 0x05, 0xf4, 0xfe, 0x05, 0xf5, 0xde, 0xdd, 0x04, 0x05, 0x00, 0xec,
  0x02, 0x18, 0xf6, 0x05, 0x05, 0xf4, 0xef, 0xf9, 0xf9, 0xfc, 0x0f, 0x00,
  0xfd, 0x02, 0xeb, 0x02, 0xd9, 0x22, 0xfc, 0x05, 0xf0, 0x07, 0xf7, 0xfb,
  0x03, 0xfb, 0x04, 0xf3, 0xf0, 0xfa, 0xfb, 0x12, 0x00, 0x05, 0xe0, 0x01,
  0x04, 0x28, 0xe9, 0xee, 0xf3, 0xff, 0x03, 0x04, 0x00, 0xff, 0x05, 0x03,
  0x01, 0xfd, 0x1d, 0x00, 0x04, 0xfd, 0x10, 0xf4, 0xe7, 0xd8, 0xff, 0xf2,
  0xff, 0xf8, 0x14, 0xed, 0xf4, 0xef, 0x01, 0x00, 0xff, 0x05, 0xd9, 0xff,
  0x02, 0xfe, 0xf8, 0x03, 0xff, 0xec, 0xfc, 0xfd, 0xfd, 0xfc, 0x04, 0x05,
  0xea, 0x3c, 0x00, 0x01, 0x4d, 0xe7, 0xfe, 0x05, 0x04, 0xe7, 0xfb, 0xff,
  0xeb, 0x38, 0x00, 0x27, 0x04, 0x06, 0xfb, 0xfd, 0x03, 0xe3, 0x01, 0x01,
  0xfc, 0x38, 0xf3, 0xf9, 0x05, 0x00, 0x02, 0x45, 0xfd, 0xfe, 0x05, 0xff,
  0x00, 0xe9, 0x35, 0x3a, 0x02, 0x02, 0xfd, 0x1d, 0x04, 0x0d, 0x05, 0x02,
  0x01, 0xf0, 0xe7, 0x3b, 0xed, 0x02, 0x48, 0x03, 0x05, 0x05, 0x24, 0x03,
  0x32, 0x05, 0xfc, 0x04, 0x0f, 0x02, 0x48, 0x00, 0x04, 0x04, 0xff, 0xe5,
  0xe9, 0xfc, 0xfe, 0x2c, 0xfe, 0x03, 0x28, 0xfc, 0x02, 0x1a, 0x34, 0xfa,
  0xe7, 0x01, 0x03, 0xfe, 0xfe, 0xfd, 0x04, 0xff, 0xff, 0xfb, 0x12, 0xfe,
  0x04, 0xff, 0x7f, 0xe9, 0x24, 0x3c, 0x00, 0xec, 0x05, 0xe7, 0xfc, 0xf0,
  0xed, 0x42, 0x00, 0xfc, 0xfa, 0xfb, 0x4a, 0xfd, 0xfb, 0xfb, 0x3d, 0xfd,
  0x04, 0x01, 0xff, 0xfe, 0xfa, 0xfe, 0x07, 0xfa, 0xf7, 0x05, 0x04, 0x01,
  0xff, 0x00, 0xfd, 0xfb, 0xfb, 0xfd, 0x02, 0x01, 0xf7, 0xfd, 0x0d, 0x04,
  0x04, 0x04, 0xf4, 0x04, 0xfe, 0x07, 0x01, 0xfd, 0x03, 0xfd, 0xfb, 0xfe,
  0x03, 0x04, 0x04, 0x00, 0xfe, 0xfd, 0x08, 0xfe, 0xfb, 0xf2, 0xfc, 0x05,
  0x01, 0x03, 0xfd, 0xfc, 0x05, 0x04, 0x01, 0x04, 0xff, 0xfe, 0xf7, 0x00,
  0xf8, 0x04, 0xfd, 0x01, 0x03, 0xfd, 0xff, 0xfd, 0x06, 0xff, 0x02, 0xff,
  0xff, 0x08, 0x03, 0x05, 0x06, 0x06, 0x04, 0xfc, 0xf5, 0x00, 0xfb, 0x04,
  0x01, 0xff, 0x15, 0xfd, 0x01, 0xff, 0xfe, 0xfd, 0xfc, 0x00, 0x04, 0xfe,
  0xff, 0x00, 0x09, 0x05, 0x04, 0x08, 0x01, 0x04, 0xfb, 0x03, 0x01, 0x07,
  0x00, 0x05, 0x02, 0x01, 0xff, 0x01, 0xfd, 0xf3, 0xf6, 0x03, 0x01, 0xfc,
  0x03, 0xff, 0x01, 0x01, 0xff, 0x04, 0x03, 0xfe, 0x00, 0xff, 0xfb, 0x00,
  0x02, 0x02, 0x06, 0xfd, 0xfb, 0xff, 0xfb, 0x06, 0x01, 0xfd, 0x02, 0x02,
  0xfb, 0x03, 0xfe, 0xfb, 0xff, 0xfe, 0x07, 0x00, 0x01, 0x01, 0x00, 0x02,
  0xfd, 0x02, 0xfc, 0x03, 0xfc, 0xfe, 0xfa, 0x02, 0x07, 0x03, 0x02, 0x08,
  0x06, 0x05, 0x0f, 0xfe, 0x05, 0xfc, 0x04, 0x00, 0x05, 0x05, 0xfd, 0x05,
  0x01, 0x06, 0xfd, 0x03, 0xfe, 0xff, 0xf8, 0xff, 0xf4, 0xfc, 0x01, 0x01,
  0xff, 0xfc, 0xff, 0xfe, 0x01, 0x04, 0xfd, 0x00, 0x03, 0xff, 0x00, 0x04,
  0xfc, 0x05, 0x05, 0xf7, 0xf8, 0xfe, 0xff, 0xff, 0x04, 0x02, 0x0a, 0xfa,
  0x05, 0x07, 0x00, 0xfb, 0xf9, 0x02, 0xfd, 0xfa, 0xf9, 0x04, 0x03, 0xfc,
  0x02, 0x0b, 0x01, 0xfe, 0xfb, 0x00, 0x06, 0xf5, 0xff, 0x01, 0x08, 0xfa,
  0xfc, 0xfa, 0xf9, 0xff, 0xf3, 0x01, 0x03, 0x00, 0xfc, 0x01, 0xff, 0x04,
  0x03, 0x02, 0x02, 0xfc, 0xfe, 0x03, 0xfb, 0x00, 0x03, 0x00, 0xf9, 0x03,
  0xff, 0xfc, 0x05, 0xfb, 0x06, 0xf5, 0x05, 0xfe, 0x00, 0x08, 0x03, 0x05,
  0x08, 0x02, 0xfd, 0x06, 0x01, 0x04, 0x00, 0xf9, 0xfe, 0xf5, 0xff, 0x05,
  0x02, 0x03, 0xff, 0x00, 0x00, 0x40, 0xfc, 0x16, 0xfd, 0x01, 0x25, 0xfc,
  0x03, 0x02, 0x17, 0xfe, 0x01, 0x00, 0xfc, 0x10, 0x03, 0x05, 0xff, 0x04,
  0x03, 0xf5, 0xf3, 0x02, 0xed, 0xfa, 0x42, 0xfc, 0xff, 0xfc, 0xfe, 0x02,
  0x11, 0x02, 0xfe, 0xfd, 0x00, 0x47, 0x01, 0xfe, 0x06, 0x03, 0xfe, 0xf5,
  0xf8, 0x02, 0x04, 0x02, 0xff, 0x05, 0x08, 0x00, 0x01, 0x02, 0x05, 0x2e,
  0x39, 0xfd, 0xff, 0xfb, 0xfb, 0x00, 0x02, 0x05, 0x00, 0x00, 0x02, 0xfb,
  0xfa, 0x03, 0x0b, 0xef, 0xfe, 0x03, 0x00, 0xfc, 0xfd, 0xf6, 0x00, 0xfd,
  0xee, 0xfd, 0x04, 0xfe, 0xff, 0xfc, 0x04, 0x04, 0xfd, 0xfb, 0x1b, 0x04,
  0xfd, 0x00, 0xfb, 0x01, 0x05, 0xfa, 0xff, 0x02, 0xf9, 0xfa, 0xfd, 0x02,
  0x03, 0x00, 0x01, 0x01, 0xff, 0x00, 0x02, 0xfb, 0xfc, 0xfb, 0x02, 0x01,
  0xfa, 0x02, 0x05, 0x04, 0xfd, 0x02, 0x05, 0x05, 0x00, 0x00, 0x01, 0xfc,
  0xfb, 0x01, 0xfe, 0x00, 0xfa, 0x00, 0x03, 0xfc, 0xfb, 0xfb, 0xfd, 0x01,
  0xfb, 0x02, 0xfc, 0xfa, 0x04, 0xf9, 0xff, 0xfa, 0x01, 0xfb, 0xfa, 0xff,
  0x01, 0xfc, 0xfc, 0x05, 0xff, 0x03, 0xfc, 0x00, 0x00, 0xfa, 0x05, 0x05,
  0xfe, 0xfe, 0xff, 0x06, 0xfd, 0xff, 0x05, 0xff, 0x03, 0xfa, 0x03, 0x01,
  0xff, 0x06, 0xfe, 0xfe, 0x01, 0xf8, 0xf9, 0xfa, 0xfc, 0x06, 0x00, 0x01,
  0x05, 0x00, 0xfd, 0xfb, 0xfe, 0x00, 0xfe, 0xfb, 0x02, 0x01, 0xf8, 0xfc,
  0xfd, 0x01, 0x04, 0xfd, 0x01, 0xff, 0xfd, 0xfd, 0x02, 0xf8, 0x01, 0xfe,
  0x02, 0xfb, 0xf8, 0xfd, 0x03, 0xfb, 0xfb, 0xfb, 0xfe, 0xfa, 0x03, 0x04,
  0x02, 0xfd, 0xfd, 0xfe, 0xfc, 0xfd, 0xfb, 0x03, 0xfa, 0xfb, 0x05, 0x01,
  0xfd, 0xf9, 0x00, 0x01, 0xf5, 0x03, 0x03, 0xfe, 0xfe, 0xfe, 0xfc, 0xfb,
  0xf2, 0xfb, 0x00, 0x00, 0xfd, 0x00, 0xfc, 0xf9, 0x00, 0xfd, 0xfc, 0x02,
  0xfb, 0x01, 0xfb, 0x02, 0x00, 0xf9, 0xfd, 0x01, 0x05, 0x03, 0x00, 0xfe,
  0x05, 0xfc, 0x03, 0xfb, 0xfc, 0xf8, 0xf9, 0x02, 0xf3, 0xfe, 0xf9, 0x04,
  0xfc, 0x01, 0xf9, 0xff, 0x01, 0xfe, 0x01, 0xfe, 0x01, 0xfc, 0x02, 0xff,
  0xfd, 0xfd, 0x01, 0xf4, 0xf4, 0xfb, 0xfe, 0xfa, 0x02, 0x00, 0xff, 0xfe,
  0xfe, 0x01, 0xfd, 0xfa, 0xf3, 0xfc, 0xfe, 0xf9, 0x05, 0xff, 0x04, 0x05,
  0xff, 0x05, 0xfd, 0xfb, 0xfc, 0x04, 0xfe, 0xfa, 0xfa, 0x02, 0x05, 0xfa,
  0x04, 0xfb, 0xf9, 0xf4, 0xf9, 0xfa, 0x04, 0x03, 0x03, 0xfe, 0xfc, 0x02,
  0x00, 0xfe, 0x03, 0xfb, 0x05, 0xfe, 0x02, 0xfc, 0x03, 0xfd, 0xfd, 0xfb,
  0xf7, 0xfd, 0x01, 0xfd, 0xff, 0xf8, 0x03, 0xff, 0xfc, 0x0b, 0xfd, 0xfc,
  0xfe, 0xfe, 0xfb, 0xf6, 0xfd, 0x03, 0xff, 0x00, 0xfb, 0xfe, 0xfc, 0x01,
  0xfe, 0xfb, 0xf5, 0x09, 0x03, 0xfa, 0x04, 0xfd, 0xff, 0x03, 0xf7, 0x03,
  0x00, 0xf6, 0xfd, 0xff, 0xfe, 0xfd, 0x01, 0xfa, 0xfa, 0x06, 0x02, 0x04,
  0xfd, 0xf4, 0xf7, 0x01, 0xf9, 0xf6, 0xfe, 0xff, 0x06, 0xfb, 0x01, 0x00,
  0x02, 0xfa, 0xff, 0xfa, 0x04, 0xfd, 0xfb, 0x02, 0xfe, 0x00, 0x05, 0xf8,
  0xfe, 0xfa, 0xfc, 0x01, 0x02, 0xfa, 0x00, 0xfc, 0xfb, 0xfa, 0x00, 0x06,
  0xfc, 0x05, 0xfd, 0x03, 0x04, 0xfb, 0x04, 0x05, 0x01, 0x03, 0xfd, 0x03,
  0xfd, 0xfb, 0xf5, 0xfd, 0x03, 0xfb, 0x03, 0x02, 0x00, 0xf7, 0x02, 0xfe,
  0xf6, 0xff, 0xfe, 0xff, 0x05, 0xf7, 0xff, 0xfc, 0xfd, 0xfb, 0xfe, 0x02,
  0xfd, 0xfa, 0x03, 0xfd, 0x01, 0xfc, 0x00, 0xfc, 0xe7, 0x09, 0x03, 0xfd,
  0x01, 0xeb, 0xfe, 0x00, 0x00, 0xf3, 0x00, 0xfb, 0xf7, 0x0b, 0x05, 0xfd,
  0xfa, 0xfb, 0x02, 0x02, 0xfb, 0xf2, 0x02, 0x00, 0x03, 0xfd, 0xf0, 0xfa,
  0x00, 0x0b, 0x00, 0x49, 0xfe, 0xfc, 0x12, 0xfe, 0xfd, 0xe8, 0x03, 0xfe,
  0x05, 0x02, 0x00, 0xff, 0x02, 0x01, 0x04, 0x03, 0x01, 0xf6, 0xea, 0x02,
  0xf1, 0xfe, 0x06, 0x00, 0x02, 0x02, 0x03, 0x03, 0xfe, 0xfc, 0x03, 0x05,
  0xff, 0x0d, 0x0f, 0x02, 0xfb, 0x01, 0xfd, 0xf4, 0xe2, 0x04, 0xff, 0x01,
  0xfc, 0x04, 0x0f, 0xfd, 0x05, 0x00, 0xfa, 0x06, 0xfc, 0xfe, 0x00, 0xf9,
  0xfe, 0xfe, 0x05, 0xff, 0x02, 0x04, 0xfb, 0x04, 0x03, 0x01, 0x1b, 0xfb,
  0xff, 0x00, 0x03, 0xf2, 0x01, 0xea, 0x04, 0xe2, 0xfc, 0x06, 0xfa, 0x04,
  0x02, 0xf9, 0xf9, 0xfd, 0xfc, 0x03, 0x01, 0x04, 0xff, 0xfb, 0x06, 0x03,
  0x00, 0xff, 0xfb, 0xfe, 0xf7, 0xfb, 0x04, 0x00, 0xfa, 0xff, 0x05, 0x02,
  0x04, 0xf9, 0x04, 0xfd, 0x00, 0xfc, 0x01, 0xf9, 0xfb, 0x00, 0x05, 0x03,
  0x02, 0xf7, 0xff, 0xfc, 0xfc, 0xfe, 0xf7, 0x05, 0x03, 0x02, 0x06, 0xf9,
  0xfc, 0xfb, 0x03, 0x02, 0xfc, 0xf8, 0x03, 0xf9, 0x00, 0xfc, 0x05, 0xfd,
  0x03, 0xfe, 0xfe, 0x01, 0x00, 0x01, 0x01, 0xf9, 0x01, 0xf9, 0xfe, 0x01,
  0x05, 0xfb, 0xfe, 0xfb, 0xf7, 0xff, 0x03, 0xfe, 0x00, 0xfd, 0xfc, 0xfd,
  0xfc, 0x02, 0x05, 0xf9, 0xfb, 0x00, 0x05, 0xf9, 0xfb, 0x06, 0xfd, 0xfb,
  0x03, 0x01, 0xfe, 0xfb, 0xfe, 0xfe, 0xff, 0xfd, 0xfe, 0x05, 0x01, 0xff,
  0x03, 0xff, 0xf7, 0xfd, 0x03, 0xfe, 0xff, 0xf8, 0xff, 0xff, 0x02, 0xf8,
  0x01, 0xfa, 0x03, 0x00, 0xfa, 0xff, 0xfc, 0xfe, 0x01, 0xfc, 0xf9, 0x05,
  0xff, 0x03, 0x01, 0xf7, 0x03, 0xfe, 0xfb, 0xfe, 0x02, 0x04, 0x04, 0xff,
  0x00, 0x05, 0x04, 0x08, 0xfa, 0x01, 0x05, 0xff, 0xff, 0x04, 0x00, 0x03,
  0x00, 0x00, 0x00, 0x06, 0xfb, 0xfa, 0x06, 0x0a, 0x04, 0x00, 0x01, 0xfe,
  0x05, 0xfd, 0xfb, 0xfd, 0x07, 0x05, 0x06, 0x01, 0xfe, 0x03, 0x07, 0xfc,
  0x01, 0x00, 0x03, 0x00, 0xfc, 0x00, 0xff, 0x02, 0xfb, 0x02, 0x04, 0xff,
  0x01, 0x01, 0xf7, 0x04, 0xfc, 0xfc, 0x02, 0xfb, 0xfd, 0xfd, 0x02, 0x03,
  0xff, 0x04, 0x00, 0xfe, 0x01, 0x02, 0x02, 0x01, 0xfe, 0xfe, 0xff, 0x05,
  0xfd, 0x01, 0xfa, 0x01, 0xfc, 0x00, 0x03, 0xff, 0x01, 0xff, 0x06, 0x03,
  0x04, 0x06, 0xff, 0xfa, 0x01, 0x01, 0x04, 0x05, 0xfd, 0x0d, 0x03, 0x05,
  0xfc, 0x04, 0x02, 0x00, 0x06, 0x05, 0xff, 0x04, 0xfd, 0xff, 0xfc, 0xfc,
  0xfe, 0xff, 0x05, 0x02, 0x01, 0xfb, 0x02, 0x05, 0x01, 0x03, 0x07, 0xfe,
  0xfe, 0x02, 0x03, 0xfc, 0x00, 0xfb, 0xfb, 0xff, 0xfe, 0xff, 0x05, 0xfc,
  0x01, 0x01, 0x05, 0x01, 0xfb, 0xf2, 0xfd, 0xfc, 0xff, 0x02, 0xfb, 0xff,
  0xfb, 0xfb, 0x00, 0xf9, 0xff, 0xfe, 0x02, 0xfe, 0x03, 0xfd, 0xfa, 0xf6,
  0x03, 0xff, 0xfe, 0x06, 0xfd, 0xff, 0xfd, 0x00, 0xfc, 0xfa, 0x01, 0x03,
  0xfe, 0x04, 0xfb, 0x00, 0xfe, 0x00, 0x01, 0xfa, 0x00, 0x01, 0xf6, 0xfc,
  0xf8, 0xfd, 0xfd, 0x01, 0xfc, 0xfe, 0xff, 0x05, 0xfe, 0x02, 0x01, 0xfd,
  0x07, 0xfb, 0x08, 0xfd, 0x04, 0x04, 0x08, 0xfc, 0x00, 0xfa, 0x04, 0xfd,
  0xff, 0x02, 0x06, 0xf8, 0x05, 0x00, 0x04, 0xfe, 0xff, 0x01, 0x00, 0xff,
  0xff, 0xfd, 0x02, 0xfc, 0x01, 0x01, 0x08, 0x00, 0xf9, 0x00, 0xfa, 0xf5,
  0x03, 0xff, 0xfc, 0xfa, 0x01, 0xfc, 0xff, 0xff, 0xfd, 0x04, 0x03, 0x03,
  0x02, 0xfd, 0xfd, 0x00, 0x05, 0x02, 0x01, 0xfb, 0xff, 0xf8, 0x01, 0x06,
  0xff, 0x01, 0x03, 0x00, 0xf9, 0xfc, 0x00, 0xfb, 0xf9, 0x00, 0xfd, 0x04,
  0x00, 0xff, 0xfe, 0x03, 0x05, 0x02, 0x00, 0x03, 0x02, 0xfb, 0xfb, 0x01,
  0xfe, 0xfc, 0xfe, 0x03, 0xfd, 0xfc, 0xfa, 0xff, 0x02, 0xfd, 0xfd, 0xfd,
  0x05, 0x05, 0xfd, 0x05, 0x05, 0xfb, 0xff, 0x03, 0x04, 0xff, 0xfe, 0xff,
  0x05, 0xfe, 0x00, 0xf9, 0x03, 0xff, 0x03, 0xfc, 0x01, 0xfd, 0xff, 0x04,
  0x00, 0xff, 0xfd, 0x03, 0x00, 0x00, 0x00, 0x01, 0xfc, 0xff, 0xff, 0x05,
  0xfe, 0x00, 0xf9, 0xff, 0xfb, 0xfa, 0x00, 0xfe, 0x00, 0x05, 0xfa, 0xff,
  0xfc, 0xfc, 0x03, 0xfe, 0x03, 0x03, 0x04, 0x00, 0xfc, 0xff, 0xfd, 0xfd,
  0x04, 0xfb, 0x03, 0xfd, 0x03, 0x05, 0x01, 0xfc, 0x01, 0xfd, 0xfe, 0xfd,
  0xfc, 0xfd, 0xfe, 0xfe, 0xf8, 0xfd, 0x02, 0x00, 0xfa, 0x06, 0xfb, 0x05,
  0xfd, 0xfa, 0x03, 0x02, 0x04, 0xf8, 0x01, 0x04, 0xfd, 0xfd, 0xfe, 0x04,
  0xf7, 0x05, 0xff, 0xfc, 0x02, 0xfc, 0xfb, 0xfe, 0xfd, 0xfd, 0x00, 0xfa,
  0xff, 0x05, 0x03, 0xfb, 0x01, 0x03, 0x04, 0xfe, 0xfc, 0xf3, 0x03, 0xfe,
  0xfe, 0xfc, 0xf8, 0xfb, 0xfd, 0xf5, 0xfd, 0xff, 0xfe, 0x01, 0x00, 0x03,
  0x00, 0xf7, 0xfc, 0x00, 0x01, 0xfc, 0x05, 0x03, 0x04, 0xfb, 0x02, 0xfa,
  0x05, 0xf2, 0xf5, 0x05, 0xf6, 0xfc, 0x06, 0x04, 0x02, 0xff, 0x05, 0xff,
  0xfc, 0xfc, 0xfe, 0x01, 0x02, 0xf8, 0x04, 0xff, 0xfb, 0xfe, 0x01, 0xf4,
  0xfa, 0xfe, 0x04, 0xfe, 0x02, 0xfd, 0x05, 0xfd, 0xfb, 0xfc, 0x03, 0xf8,
  0xf6, 0xfd, 0x03, 0xfe, 0x01, 0xfd, 0x05, 0x02, 0xfe, 0x04, 0xfb, 0x01,
  0xfb, 0xfe, 0x00, 0xf9, 0xfe, 0xfc, 0xff, 0xf4, 0x05, 0xf8, 0x05, 0xf7,
  0xf5, 0x05, 0x05, 0x04, 0xfc, 0x01, 0x04, 0xfe, 0x00, 0xfe, 0xfb, 0x05,
  0xfe, 0xfc, 0x03, 0xfe, 0xfe, 0xfb, 0xfc, 0x02, 0xf8, 0x01, 0xfd, 0xff,
  0x00, 0xf8, 0xfd, 0xfb, 0xfd, 0xf7, 0x00, 0xfa, 0xff, 0x07, 0x06, 0x03,
  0xff, 0xfa, 0x02, 0x02, 0x04, 0xfd, 0xfe, 0x03, 0x03, 0x03, 0x00, 0x00,
  0x04, 0x03, 0xff, 0x02, 0x05, 0xfd, 0xfe, 0xfe, 0xff, 0xf8, 0xfd, 0xff,
  0x00, 0xfa, 0x02, 0xfa, 0xfc, 0x07, 0x02, 0x02, 0xfc, 0xfc, 0xf8, 0x02,
  0xff, 0xfe, 0xfc, 0x05, 0xfd, 0xfd, 0xfe, 0xff, 0xff, 0xfc, 0xfd, 0x03,
  0x06, 0xfe, 0x00, 0xfc, 0xff, 0x00, 0x01, 0x01, 0x00, 0xfe, 0xfa, 0x02,
  0xfc, 0xfd, 0x06, 0xfe, 0xfd, 0xfc, 0x00, 0xfc, 0xfc, 0x04, 0x01, 0xff,
  0xfa, 0xff, 0x03, 0x02, 0x01, 0x04, 0x02, 0xfb, 0x03, 0xfe, 0xfd, 0x01,
  0xfc, 0xff, 0x08, 0xff, 0x00, 0x01, 0x02, 0xf8, 0xfc, 0x01, 0x04, 0x02,
  0x02, 0xf9, 0xfd, 0xfb, 0x03, 0xfd, 0x06, 0xfb, 0x02, 0xf9, 0xff, 0xfe,
  0xfe, 0xff, 0xff, 0x04, 0xfc, 0xfe, 0xff, 0xfe, 0x03, 0xf4, 0x04, 0x01,
  0x05, 0x01, 0xfb, 0x01, 0xff, 0xfc, 0xf4, 0x01, 0x02, 0xff, 0x0a, 0xfa,
  0x01, 0xf9, 0x00, 0x03, 0x01, 0x02, 0x01, 0xfe, 0x07, 0xf9, 0x03, 0xfc,
  0x01, 0xfb, 0x05, 0xfc, 0x02, 0xf9, 0xfa, 0x04, 0xfb, 0xfb, 0x05, 0x03,
  0xfd, 0xf8, 0x04, 0x04, 0x02, 0xfd, 0xfd, 0xfd, 0xf8, 0xfc, 0xfa, 0xfe,
  0x04, 0x04, 0x00, 0xfb, 0xfe, 0x01, 0xfd, 0xfd, 0xff, 0xfb, 0x04, 0xff,
  0xfd, 0xff, 0xff, 0xf6, 0xfd, 0xfd, 0x05, 0x00, 0x01, 0x03, 0xfb, 0x00,
  0x00, 0xf9, 0x01, 0xf9, 0xf9, 0x03, 0xfe, 0x02, 0x04, 0x00, 0x04, 0x03,
  0xff, 0x02, 0xfe, 0x02, 0x01, 0x03, 0x00, 0xf8, 0x01, 0x02, 0x04, 0xf4,
  0xfe, 0xfe, 0x05, 0xf7, 0xfb, 0x04, 0xfe, 0xfb, 0x05, 0x04, 0xfb, 0x04,
  0xfc, 0x01, 0xff, 0x02, 0xff, 0x00, 0x05, 0x03, 0x03, 0xff, 0xfe, 0xff,
  0xff, 0x01, 0x06, 0x00, 0x05, 0xf6, 0xff, 0xff, 0xff, 0xff, 0xfe, 0xfe,
  0xf6, 0xfb, 0xfd, 0x00, 0x05, 0xff, 0xfb, 0xfd, 0x00, 0xfc, 0x00, 0xfe,
  0x01, 0xfb, 0xf5, 0xf9, 0xfd, 0xfe, 0xff, 0xfd, 0xfb, 0xfc, 0xff, 0xff,
  0xfd, 0xfa, 0x01, 0xfc, 0x01, 0x02, 0xff, 0xfa, 0x02, 0x02, 0xfb, 0x06,
  0x00, 0xf4, 0xf7, 0x00, 0xf7, 0x05, 0x03, 0x03, 0xfe, 0xfd, 0xfe, 0x04,
  0xfd, 0x07, 0x04, 0x06, 0x00, 0x00, 0xfb, 0x01, 0xff, 0xfe, 0xfe, 0xfe,
  0xf5, 0x03, 0x01, 0xfd, 0x00, 0x01, 0x05, 0xfe, 0x05, 0x00, 0xfe, 0xfe,
  0xf5, 0x05, 0x05, 0xfc, 0x06, 0xfe, 0xfb, 0x00, 0xfe, 0xfb, 0xfb, 0x03,
  0x02, 0xfd, 0xfb, 0xf8, 0xff, 0x05, 0x04, 0xfd, 0x03, 0xf4, 0xfe, 0xf8,
  0xf9, 0xfb, 0xfb, 0x01, 0x01, 0x02, 0x03, 0xfb, 0xff, 0xff, 0x04, 0xfe,
  0xfd, 0xfc, 0x04, 0xfd, 0xfe, 0x02, 0x04, 0xfe, 0x14, 0x01, 0x03, 0x06,
  0xfd, 0x09, 0xfe, 0xfb, 0x06, 0x04, 0x02, 0x06, 0x0f, 0xfa, 0x07, 0xfe,
  0x01, 0x00, 0x06, 0x06, 0xff, 0x07, 0x02, 0xfe, 0xfc, 0xfd, 0x00, 0x05,
  0x09, 0xf6, 0x01, 0x02, 0x02, 0xfe, 0x03, 0xfc, 0xfc, 0x19, 0xfc, 0xfd,
  0x03, 0xfd, 0xff, 0x03, 0xff, 0xf9, 0x01, 0xfa, 0xfb, 0x01, 0x16, 0x01,
  0x07, 0xfe, 0xf5, 0x00, 0xfe, 0xfc, 0x03, 0x04, 0xf8, 0xfa, 0x04, 0x05,
  0x01, 0xf4, 0x05, 0xfb, 0xfb, 0x03, 0xfb, 0x09, 0x10, 0x09, 0xfc, 0x02,
  0xfc, 0x01, 0xf7, 0x07, 0xfa, 0xfa, 0x02, 0x06, 0x04, 0x01, 0xfd, 0xfb,
  0x03, 0x02, 0x03, 0x04, 0xfd, 0xff, 0x03, 0x00, 0x04, 0x08, 0xf7, 0xfe,
  0xfc, 0xfe, 0x0b, 0x04, 0xfc, 0x0a, 0x0a, 0x16, 0x06, 0x01, 0x03, 0x03,
  0xff, 0x07, 0xfc, 0xfe, 0x01, 0x06, 0xf2, 0x03, 0xfd, 0xff, 0xfe, 0x03,
  0xff, 0xfb, 0x03, 0xfe, 0xf8, 0xfd, 0x02, 0xfb, 0xf7, 0xfb, 0x01, 0xfe,
  0x03, 0x01, 0x02, 0xfe, 0x01, 0xfe, 0xfb, 0xfa, 0xfd, 0x05, 0xfd, 0xfb,
  0xfe, 0xf8, 0x00, 0xff, 0x01, 0xfb, 0xfd, 0xf8, 0xf7, 0xff, 0x03, 0xf9,
  0x06, 0x05, 0x03, 0x01, 0x05, 0xfd, 0x07, 0xff, 0x00, 0xfe, 0x00, 0xfd,
  0x00, 0xf7, 0x02, 0xff, 0xfe, 0x02, 0xf9, 0x00, 0xf8, 0x00, 0xfa, 0x02,
  0x01, 0x01, 0x00, 0x06, 0x01, 0xfe, 0x00, 0xfd, 0xff, 0xf8, 0x07, 0xff,
  0x01, 0x04, 0x00, 0xfb, 0x01, 0xfe, 0x02, 0x00, 0xfc, 0xfb, 0xfb, 0x04,
  0x00, 0x06, 0xfc, 0x02, 0xfb, 0x01, 0xfd, 0xf8, 0xfc, 0xfc, 0x01, 0x03,
  0x02, 0xff, 0x04, 0x03, 0xff, 0x00, 0xfb, 0xfa, 0x06, 0x01, 0xf9, 0xfc,
  0x03, 0xf9, 0xff, 0x02, 0xfe, 0x04, 0xfb, 0x04, 0x03, 0xfd, 0xf8, 0x02,
  0x05, 0x04, 0x00, 0xfd, 0x05, 0xf8, 0x01, 0x03, 0x04, 0x03, 0xfb, 0x01,
  0xf6, 0x07, 0x01, 0x04, 0xfb, 0xfa, 0x01, 0x00, 0xfb, 0xf7, 0xfb, 0xfc,
  0xfe, 0xff, 0xff, 0xf9, 0x01, 0x02, 0x01, 0x01, 0xfc, 0xfc, 0xfd, 0xfa,
  0x04, 0x00, 0xff, 0xfe, 0x04, 0x00, 0x01, 0xfe, 0x05, 0xfe, 0xf9, 0xfe,
  0xff, 0xfb, 0x05, 0x01, 0xfb, 0x02, 0xfd, 0x04, 0x02, 0x04, 0xfb, 0xfc,
  0xfe, 0xf7, 0xff, 0x04, 0xfa, 0x00, 0xf7, 0x02, 0x02, 0x01, 0xfb, 0xff,
  0xfb, 0xff, 0x03, 0xfd, 0x02, 0xf8, 0x04, 0x04, 0xfe, 0xfc, 0xff, 0xfa,
  0xf8, 0x04, 0x04, 0xf6, 0x06, 0x04, 0xff, 0x01, 0xfd, 0xff, 0x00, 0xf9,
  0xfb, 0x03, 0xfd, 0x01, 0x04, 0xfb, 0xfc, 0xfc, 0x00, 0x03, 0xff, 0x04,
  0x00, 0x03, 0xf9, 0xf9, 0x02, 0xfc, 0xf8, 0xf7, 0xfd, 0xfc, 0xfd, 0x01,
  0x00, 0xfd, 0x02, 0x02, 0xfb, 0xfe, 0xfb, 0x00, 0x02, 0xfc, 0xff, 0xfc,
  0xe6, 0xf3, 0xff, 0xff, 0x04, 0x00, 0x00, 0x00, 0x00, 0x01, 0x00, 0x00,
  0x0e, 0xff, 0xff, 0xff, 0x68, 0xfc, 0xff, 0xff, 0x6d, 0xf3, 0xff, 0xff,
  0x16, 0x0c, 0x00, 0x00, 0x8a, 0xfa, 0xff, 0xff, 0x07, 0xfd, 0xff, 0xff,
  0xdb, 0xf6, 0xff, 0xff, 0xf2, 0xf3, 0xff, 0xff, 0xf9, 0x00, 0x00, 0x00,
  0x51, 0xff, 0xff, 0xff, 0x60, 0xff, 0xff, 0xff, 0x05, 0xff, 0xff, 0xff,
  0xd6, 0xfe, 0xff, 0xff, 0x43, 0xff, 0xff, 0xff, 0x03, 0xf5, 0xff, 0xff,
  0x3c, 0xf3, 0xff, 0xff, 0xbd, 0xff, 0xff, 0xff, 0x01, 0xfe, 0xff, 0xff,
  0x9e, 0xf3, 0xff, 0xff, 0xd1, 0xfe, 0xff, 0xff, 0x4c, 0xff, 0xff, 0xff,
  0x35, 0xff, 0xff, 0xff, 0x8a, 0x0c, 0x00, 0x00, 0x15, 0x0b, 0x00, 0x00,
  0x58, 0xff, 0xff, 0xff, 0x58, 0xff, 0xff, 0xff, 0x84, 0xfe, 0xff, 0xff,
  0x08, 0xf3, 0xff, 0xff, 0x78, 0xf3, 0xff, 0xff, 0x51, 0xf3, 0xff, 0xff,
  0x12, 0x00, 0x00, 0x00, 0xbd, 0xfe, 0xff, 0xff, 0x58, 0xff, 0xff, 0xff,
  0x43, 0xff, 0xff, 0xff, 0x73, 0xfd, 0xff, 0xff, 0xec, 0xfe, 0xff, 0xff,
  0xe2, 0x09, 0x00, 0x00, 0xfc, 0x05, 0x00, 0x00, 0xdf, 0x04, 0x00, 0x00,
  0x7e, 0xff, 0xff, 0xff, 0x82, 0x02, 0x00, 0x00, 0x5a, 0xfb, 0xff, 0xff,
  0x07, 0x01, 0x00, 0x00, 0x3c, 0xfd, 0xff, 0xff, 0xd7, 0xfd, 0xff, 0xff,
  0x88, 0xfc, 0xff, 0xff, 0x5c, 0x0b, 0x00, 0x00, 0x92, 0x09, 0x00, 0x00,
  0x83, 0x03, 0x00, 0x00, 0x1e, 0xff, 0xff, 0xff, 0xbe, 0xfc, 0xff, 0xff,
  0xa1, 0xfd, 0xff, 0xff, 0x58, 0x09, 0x00, 0x00, 0xc6, 0xfe, 0xff, 0xff,
  0xfe, 0x0b, 0x00, 0x00, 0xe4, 0xfe, 0xff, 0xff, 0x43, 0xff, 0xff, 0xff,
  0xf3, 0xfd, 0xff, 0xff, 0x0b, 0x01, 0x00, 0x00, 0xd4, 0xff, 0xff, 0xff,
  0xe4, 0xfd, 0xff, 0xff, 0xad, 0xf1, 0xff, 0xff, 0x27, 0xff, 0xff, 0xff,
  0x72, 0xfe, 0xff, 0xff, 0xf2, 0xf4, 0xff, 0xff, 0x04, 0x00, 0x00, 0x00,
  0x00, 0x08, 0x00, 0x00, 0x04, 0xf7, 0xf3, 0xf3, 0x02, 0x03, 0xfb, 0xf1,
  0x06, 0x01, 0x00, 0xff, 0xff, 0x05, 0xfe, 0xf0, 0xff, 0x03, 0xf6, 0x04,
  0x00, 0xfc, 0x00, 0x2f, 0x03, 0x04, 0x00, 0xfd, 0xf0, 0xf4, 0x02, 0x04,
  0x03, 0xff, 0xfa, 0x05, 0xf9, 0x05, 0x00, 0xff, 0x03, 0xfc, 0x02, 0x05,
  0x0b, 0xf0, 0xfb, 0xfa, 0x21, 0x03, 0xff, 0xfa, 0x13, 0x09, 0xf8, 0x02,
  0x07, 0xf8, 0x05, 0xff, 0xfb, 0xff, 0xfe, 0x00, 0x04, 0x08, 0xfc, 0xfb,
  0x05, 0x06, 0x00, 0xfb, 0xff, 0xfc, 0x06, 0x04, 0xfe, 0x02, 0xf9, 0x04,
  0x03, 0x05, 0xf5, 0x07, 0xfc, 0x04, 0xfc, 0x00, 0x03, 0x04, 0xfc, 0x03,
  0x02, 0xf7, 0x04, 0xfb, 0xfe, 0x05, 0xfe, 0xfb, 0x00, 0x04, 0x00, 0xf8,
  0xff, 0xfa, 0x00, 0xff, 0x02, 0x01, 0xfc, 0xfe, 0xfc, 0xfb, 0x02, 0xfd,
  0xfb, 0xfa, 0x00, 0xf8, 0x03, 0xfa, 0x02, 0xff, 0xfc, 0x01, 0x04, 0x06,
  0x07, 0xfc, 0xe1, 0x49, 0x01, 0x00, 0xfb, 0xe2, 0xfe, 0x04, 0xff, 0x02,
  0xfe, 0xf8, 0xe9, 0xe4, 0xff, 0xfd, 0xdb, 0x05, 0xfb, 0x05, 0x4d, 0x5a,
  0xfb, 0x04, 0x03, 0xdb, 0xd7, 0xef, 0xfb, 0x02, 0xfe, 0xfe, 0x39, 0x00,
  0x58, 0x3b, 0x4f, 0x04, 0x02, 0x02, 0xfb, 0x1c, 0x2a, 0x27, 0x6f, 0x2a,
  0x2e, 0x02, 0x01, 0xfb, 0x0a, 0xff, 0x16, 0x01, 0xfb, 0x07, 0xfc, 0x36,
  0x06, 0xf0, 0x00, 0xfd, 0x06, 0x05, 0xf4, 0x0d, 0x0e, 0x05, 0x00, 0xf3,
  0x04, 0x06, 0x00, 0xfe, 0x00, 0x00, 0xea, 0xfd, 0xfb, 0xff, 0xf4, 0xfe,
  0x07, 0xf8, 0x02, 0x00, 0x05, 0x04, 0x00, 0xef, 0xf6, 0xf3, 0x03, 0x00,
  0x06, 0xfb, 0x0a, 0x02, 0x07, 0x3a, 0x29, 0xfd, 0xff, 0xf7, 0x04, 0x33,
  0x16, 0xdc, 0x02, 0xfc, 0xdd, 0xfc, 0xf9, 0x09, 0xba, 0x08, 0xf5, 0xfc,
  0xff, 0x0f, 0x02, 0xf8, 0x09, 0x04, 0x07, 0x05, 0x06, 0xf9, 0x14, 0xee,
  0x03, 0xf4, 0x06, 0x0f, 0x01, 0xfa, 0xf9, 0xfd, 0x03, 0x08, 0x08, 0x13,
  0x02, 0x01, 0x14, 0x0a, 0x03, 0x04, 0xf4, 0x01, 0x07, 0x01, 0x02, 0x14,
  0x1a, 0x16, 0x08, 0x01, 0x04, 0xfd, 0x05, 0xf9, 0xfc, 0x11, 0x0c, 0x08,
  0x02, 0x02, 0x02, 0x0a, 0x05, 0x07, 0xf7, 0xff, 0x04, 0xfd, 0x09, 0x10,
  0x0a, 0xff, 0xfe, 0x04, 0x00, 0x04, 0x01, 0xff, 0x00, 0x1f, 0x00, 0xfd,
  0xfc, 0xf5, 0x01, 0x00, 0x07, 0x00, 0xfc, 0x07, 0xfd, 0xfd, 0x01, 0xff,
  0xf9, 0x07, 0xf8, 0x08, 0x06, 0x04, 0x06, 0xfc, 0x02, 0xfe, 0xfa, 0x03,
  0xfa, 0x02, 0xf9, 0xff, 0x02, 0xfc, 0x07, 0xfb, 0x00, 0x05, 0x05, 0xfe,
  0xfc, 0x04, 0x09, 0x04, 0xfe, 0x04, 0xfc, 0x06, 0x0d, 0x06, 0x00, 0x04,
  0x01, 0x01, 0x01, 0x08, 0x06, 0xf9, 0x00, 0x03, 0xfd, 0x0a, 0x08, 0x04,
  0x0a, 0x06, 0x05, 0x0a, 0x07, 0x06, 0xf2, 0xf8, 0xfe, 0x08, 0x00, 0xf7,
  0x01, 0xfc, 0xfe, 0x06, 0xfe, 0xf7, 0xfb, 0xf4, 0xfb, 0x07, 0xf0, 0x03,
  0xf9, 0xfb, 0xfb, 0x27, 0x01, 0x07, 0xfb, 0xf9, 0xf9, 0xf6, 0xfd, 0x01,
  0x00, 0x04, 0xef, 0xfe, 0xf8, 0xf9, 0xff, 0xfd, 0x07, 0x07, 0xfd, 0x05,
  0x09, 0x1e, 0xff, 0x00, 0x11, 0x02, 0x04, 0xfd, 0x04, 0xfe, 0xfd, 0x09,
  0x02, 0xfc, 0x05, 0x03, 0x02, 0x02, 0xf8, 0xfa, 0xfd, 0x01, 0x15, 0xf8,
  0xff, 0xff, 0x04, 0x17, 0xfc, 0xfd, 0x02, 0xfa, 0x01, 0x03, 0x0f, 0x17,
  0x02, 0x0a, 0x19, 0x06, 0x06, 0x01, 0xf1, 0xf5, 0xfa, 0x06, 0x06, 0x18,
  0x13, 0x15, 0xfc, 0xfb, 0x02, 0xfb, 0xfe, 0x05, 0x03, 0x05, 0x0c, 0xfe,
  0xff, 0xfc, 0x09, 0x0e, 0x0d, 0x08, 0xf8, 0xfa, 0x02, 0xff, 0x03, 0x05,
  0x0c, 0xf6, 0x00, 0xfa, 0xf9, 0x0b, 0xff, 0x00, 0x0a, 0x15, 0xfe, 0x06,
  0x04, 0x06, 0xfc, 0x02, 0xfc, 0xf9, 0xfc, 0xfd, 0x02, 0xfb, 0x00, 0x02,
  0x02, 0x04, 0xf9, 0x01, 0x06, 0x03, 0x01, 0x07, 0xff, 0x03, 0xf6, 0x01,
  0x05, 0x01, 0x03, 0xf7, 0xf5, 0xfb, 0xfe, 0xfc, 0x01, 0x03, 0xf7, 0x07,
  0x01, 0xfc, 0xff, 0xff, 0x03, 0xf9, 0x08, 0xfa, 0xf8, 0xfd, 0x03, 0xfc,
  0xfb, 0x07, 0x06, 0x04, 0xff, 0xff, 0xfa, 0x04, 0xff, 0xfc, 0x04, 0xf9,
  0xfe, 0xf9, 0x06, 0xfc, 0xff, 0xfc, 0xfc, 0xfb, 0x02, 0x03, 0xff, 0xfc,
  0xf8, 0x00, 0xfa, 0xfb, 0xfd, 0x07, 0x03, 0x01, 0xfa, 0x06, 0xf9, 0xfa,
  0xfe, 0xfe, 0xf7, 0x03, 0xfb, 0xfa, 0xf9, 0x00, 0x03, 0x00, 0x02, 0xf8,
  0xfa, 0x07, 0xfe, 0x00, 0x02, 0x05, 0xf9, 0x02, 0xfb, 0x04, 0x00, 0xfc,
  0x05, 0xfc, 0xfa, 0xfc, 0x02, 0x06, 0xfe, 0xff, 0x00, 0x06, 0xfc, 0xfb,
  0xfa, 0x07, 0xf9, 0x07, 0x06, 0xfa, 0x06, 0x00, 0xfd, 0xfc, 0xfe, 0x03,
  0x01, 0x05, 0x00, 0xfe, 0x03, 0xfd, 0xfd, 0xff, 0xf9, 0xff, 0xfc, 0xfa,
  0xfa, 0x03, 0xf9, 0x03, 0xfc, 0xfb, 0xfc, 0x0e, 0xfc, 0xf9, 0xff, 0x03,
  0xf9, 0x00, 0x07, 0xfc, 0xfd, 0xfc, 0xfd, 0x02, 0x02, 0x04, 0xff, 0x02,
  0x03, 0x04, 0xff, 0xe7, 0xf3, 0x11, 0xf6, 0x08, 0xe9, 0xf9, 0xff, 0x0c,
  0x07, 0x00, 0x02, 0xfd, 0xf7, 0x0a, 0x05, 0x04, 0xfd, 0xff, 0x0b, 0x07,
  0x03, 0xfa, 0xfe, 0xf7, 0xfe, 0xfd, 0xfb, 0xfb, 0xfe, 0x08, 0x06, 0xfe,
  0xfc, 0x02, 0xfb, 0x02, 0x01, 0xf9, 0x02, 0xfb, 0xfa, 0xff, 0x00, 0xfc,
  0xfc, 0xf9, 0xfb, 0x01, 0xff, 0xfe, 0xfb, 0xfe, 0x05, 0xf9, 0x05, 0x07,
  0x03, 0xfa, 0xf9, 0x03, 0xfe, 0x03, 0xf7, 0xed, 0xf9, 0x04, 0xfa, 0xfb,
  0xfe, 0xfb, 0x07, 0xfe, 0xfa, 0x05, 0xfe, 0x04, 0xfb, 0xfd, 0xf9, 0xf9,
  0xfe, 0x00, 0x01, 0xf9, 0x02, 0x07, 0xf3, 0x0e, 0x04, 0x0c, 0x01, 0xe6,
  0xfc, 0x01, 0x09, 0xfd, 0xf9, 0xf9, 0xf0, 0xf2, 0xfc, 0xfb, 0xee, 0x01,
  0xfb, 0xfb, 0x0b, 0x26, 0x02, 0x05, 0xfe, 0xe7, 0xe4, 0xfc, 0xfd, 0x08,
  0xff, 0x00, 0x05, 0xff, 0x0b, 0x06, 0xf9, 0x01, 0x04, 0x06, 0x01, 0x0d,
  0x07, 0x14, 0x04, 0x20, 0x10, 0x04, 0xfb, 0x01, 0x0a, 0x00, 0x26, 0x02,
  0x02, 0x01, 0xff, 0x03, 0x08, 0xfa, 0xf7, 0x03, 0xf9, 0x01, 0xf1, 0x16,
  0x07, 0x09, 0xfe, 0xf8, 0x06, 0x04, 0x09, 0x02, 0xfa, 0xfd, 0xf7, 0xef,
  0x05, 0xfc, 0xea, 0x01, 0xff, 0xfb, 0x07, 0x27, 0x03, 0xfb, 0xfb, 0xf4,
  0xe9, 0xf5, 0x06, 0x01, 0xff, 0x07, 0x04, 0x01, 0x18, 0x05, 0xfb, 0xf9,
  0x06, 0xff, 0x04, 0xfd, 0x00, 0x01, 0x0c, 0x0e, 0x05, 0xfb, 0xf8, 0xff,
  0x0a, 0x06, 0x21, 0x00, 0xfe, 0xf6, 0xff, 0xf7, 0x00, 0xfc, 0xf7, 0xf9,
  0xfa, 0xf6, 0xfb, 0x12, 0xfa, 0x02, 0x02, 0xea, 0xfd, 0x07, 0x01, 0x04,
  0x04, 0x02, 0xeb, 0xf7, 0xfc, 0x06, 0xf9, 0x02, 0xfd, 0xfc, 0x0b, 0x17,
  0xff, 0xfa, 0x04, 0xea, 0xec, 0xf6, 0xff, 0x04, 0x07, 0x00, 0x09, 0xfc,
  0x12, 0x0a, 0x0f, 0x10, 0x31, 0x01, 0x03, 0x0e, 0x0f, 0x22, 0x0f, 0x0b,
  0x29, 0x09, 0x01, 0x05, 0x2f, 0x06, 0x15, 0x31, 0x06, 0x01, 0xfe, 0x07,
  0x0b, 0xfb, 0x04, 0x0a, 0x00, 0x04, 0x01, 0x02, 0xfd, 0xf5, 0x02, 0x01,
  0x02, 0x03, 0x04, 0x03, 0xfb, 0xfe, 0xf8, 0x04, 0xf9, 0x04, 0x07, 0x03,
  0x00, 0x06, 0xf9, 0x07, 0x05, 0x03, 0xf9, 0x00, 0x04, 0x00, 0x01, 0x04,
  0xf8, 0x05, 0x07, 0x00, 0x01, 0xff, 0x06, 0x04, 0xf8, 0xfd, 0xfd, 0x0c,
  0x0b, 0x04, 0x01, 0xfc, 0xff, 0x00, 0xfd, 0x0f, 0x0b, 0x03, 0xfd, 0x04,
  0xff, 0x0a, 0x01, 0xfa, 0x03, 0x06, 0x0b, 0x06, 0xfc, 0xff, 0x00, 0xf7,
  0x07, 0x02, 0xfe, 0x04, 0xfa, 0xfe, 0xfa, 0x00, 0xff, 0xfc, 0xfe, 0xfb,
  0xff, 0xf9, 0xfe, 0x01, 0xfd, 0x04, 0x05, 0xfd, 0xfa, 0x02, 0x03, 0xfb,
  0xfc, 0xf7, 0x02, 0xfa, 0x05, 0xfc, 0xfa, 0xfa, 0xf7, 0xfd, 0x00, 0xff,
  0xfc, 0x05, 0x01, 0xf8, 0x05, 0x00, 0xfe, 0xfe, 0x06, 0xff, 0x05, 0xfb,
  0xf7, 0xfe, 0xf8, 0x02, 0xff, 0x05, 0xfd, 0x06, 0x07, 0xfb, 0x04, 0x05,
  0xfa, 0x02, 0xfa, 0x10, 0x07, 0xf9, 0xfb, 0xf2, 0xfc, 0xf8, 0x07, 0xfb,
  0x04, 0xfa, 0xf4, 0xfa, 0x03, 0xff, 0xeb, 0xff, 0x04, 0x04, 0x0b, 0x2a,
  0xfa, 0xff, 0xfd, 0xf0, 0xf4, 0x00, 0x04, 0x03, 0xfc, 0xfc, 0xfb, 0x09,
  0x28, 0xff, 0x00, 0xff, 0x05, 0x01, 0x05, 0x04, 0x01, 0x0b, 0x03, 0x1a,
  0x0d, 0xfe, 0xf9, 0x0d, 0x12, 0x03, 0x17, 0x04, 0x04, 0xf9, 0x05, 0x00,
  0x02, 0xfd, 0xfc, 0xfd, 0x01, 0xfe, 0xf3, 0x0c, 0x05, 0x00, 0x07, 0xee,
  0xff, 0x01, 0x02, 0x02, 0x01, 0x05, 0xed, 0xf5, 0x04, 0xfe, 0xf2, 0x01,
  0x05, 0x08, 0x0a, 0x17, 0xfc, 0x00, 0x0a, 0xf0, 0xe8, 0x06, 0x0a, 0x04,
  0xfb, 0xfc, 0x02, 0xfe, 0x1b, 0x03, 0xfb, 0xfc, 0xff, 0xfb, 0x05, 0xfb,
  0x00, 0x03, 0xfe, 0x17, 0x0b, 0x04, 0xfe, 0xfb, 0x0c, 0x00, 0x12, 0xff,
  0x01, 0xf9, 0x03, 0xf8, 0xf6, 0xfa, 0x00, 0xfb, 0xfb, 0x0b, 0xe8, 0x10,
  0x01, 0x07, 0x04, 0xe9, 0x05, 0x03, 0xfb, 0x02, 0xfc, 0x04, 0xf8, 0xe8,
  0xf9, 0x00, 0xeb, 0x03, 0xfe, 0xf9, 0x15, 0x2a, 0xfd, 0x00, 0x03, 0xeb,
  0xdf, 0x07, 0xff, 0x00, 0xfd, 0xff, 0x01, 0x04, 0x1c, 0xfc, 0x07, 0x04,
  0x09, 0xfe, 0xff, 0x05, 0xfd, 0x11, 0x14, 0x11, 0x0d, 0x07, 0xff, 0xf9,
  0x10, 0x01, 0x25, 0x08, 0xfd, 0xfa, 0x09, 0x05, 0xfb, 0x00, 0xfc, 0x01,
  0x05, 0xfc, 0xff, 0xfb, 0x02, 0xfb, 0x01, 0x06, 0x07, 0x07, 0x04, 0x05,
  0xfd, 0xfc, 0xf6, 0x09, 0xfb, 0x08, 0x00, 0xfd, 0xfc, 0xff, 0xfd, 0x01,
  0xfb, 0xf9, 0xfd, 0xff, 0x0a, 0x09, 0x05, 0xff, 0xf9, 0xfc, 0x09, 0xf8,
  0x07, 0x0f, 0x0b, 0xff, 0xfc, 0x07, 0xfa, 0x07, 0x06, 0x0c, 0xef, 0x02,
  0x08, 0x04, 0x02, 0x0e, 0x0a, 0xfa, 0xfe, 0xff, 0x07, 0x0a, 0x06, 0x05,
  0x07, 0x0a, 0x08, 0xff, 0x05, 0x00, 0xf3, 0x24, 0xfc, 0x04, 0xf6, 0xf9,
  0x01, 0x02, 0x03, 0xfd, 0xfe, 0xfd, 0xf2, 0xfa, 0xf9, 0xfe, 0xf8, 0x02,
  0x06, 0x05, 0x08, 0x1a, 0x07, 0xfc, 0xf9, 0x01, 0xf8, 0x00, 0xf9, 0xfb,
  0x00, 0x04, 0x00, 0xfd, 0xf6, 0x43, 0x2c, 0xfe, 0xfb, 0xfd, 0xfb, 0x0e,
  0xff, 0x17, 0xd9, 0xfb, 0x81, 0x05, 0x05, 0xfd, 0x2c, 0x03, 0xed, 0x03,
  0x09, 0x06, 0xfd, 0xf2, 0x01, 0xff, 0x03, 0x04, 0xfa, 0x03, 0xef, 0x18,
  0x05, 0xff, 0x08, 0xee, 0x0a, 0xfd, 0x07, 0x03, 0x02, 0xf9, 0xf8, 0xee,
  0xfa, 0x03, 0xed, 0xf7, 0xfd, 0x03, 0x13, 0x1a, 0x00, 0xfc, 0xfe, 0xeb,
  0xec, 0x02, 0xff, 0x08, 0x00, 0xff, 0xff, 0xfe, 0x1d, 0x06, 0xfd, 0x01,
  0x11, 0x03, 0xf9, 0x01, 0x01, 0x16, 0x0e, 0x0a, 0x10, 0x05, 0xfd, 0xf9,
  0x0a, 0x0a, 0x23, 0xfd, 0xfa, 0xf3, 0x00, 0xfa, 0xf3, 0xf8, 0x03, 0xfd,
  0x06, 0xfa, 0xed, 0x09, 0xfe, 0xff, 0xee, 0xf1, 0xfe, 0x00, 0xff, 0xf9,
  0x05, 0xfe, 0xf5, 0xf4, 0x01, 0x03, 0xef, 0xfb, 0xff, 0x01, 0x05, 0x29,
  0x03, 0x02, 0xf7, 0xef, 0xea, 0xfa, 0xff, 0xfe, 0x05, 0x04, 0x09, 0x01,
  0x2c, 0x07, 0x1e, 0x00, 0x14, 0xfd, 0xf3, 0xff, 0x0b, 0xf3, 0x07, 0x0f,
  0x25, 0xfe, 0xf9, 0x0a, 0x13, 0x05, 0x20, 0x00, 0xfe, 0x10, 0xfd, 0xf9,
  0x00, 0xfd, 0xff, 0x03, 0x00, 0xf9, 0xff, 0xf4, 0xfb, 0xfa, 0x02, 0xfa,
  0x05, 0xf9, 0x03, 0x04, 0x01, 0x03, 0xfe, 0x01, 0xff, 0x00, 0xf7, 0x02,
  0xfc, 0xfe, 0xfa, 0x01, 0xfb, 0xfd, 0xfa, 0x01, 0xfb, 0x00, 0x04, 0xfc,
  0xfe, 0xfd, 0xf9, 0x03, 0x01, 0xfa, 0xf9, 0xf9, 0xff, 0xf7, 0xfb, 0x00,
  0xfc, 0xf8, 0x02, 0xfd, 0x00, 0xfb, 0x06, 0x05, 0xfc, 0x00, 0x00, 0xfb,
  0x01, 0x05, 0x03, 0xfb, 0x07, 0x05, 0x06, 0x00, 0x00, 0xfe, 0xf8, 0xf9,
  0x03, 0x01, 0x02, 0xf8, 0x01, 0xfe, 0xfe, 0xfb, 0x02, 0xfa, 0x02, 0x01,
  0xfc, 0x05, 0x02, 0xfa, 0xfb, 0x02, 0xf3, 0xfc, 0x01, 0x06, 0x01, 0xfd,
  0x00, 0xf8, 0xfa, 0x00, 0xfd, 0x05, 0xf9, 0xfb, 0xff, 0xf5, 0xf5, 0x00,
  0xfc, 0x00, 0xf8, 0xfc, 0xf6, 0x00, 0xff, 0x00, 0x03, 0xfc, 0xfa, 0x04,
  0xf9, 0xfa, 0xfb, 0xfc, 0xfd, 0xf9, 0x05, 0x02, 0x07, 0xfb, 0x03, 0x04,
  0xfd, 0x07, 0xfe, 0x11, 0xfe, 0xf9, 0xf8, 0xf5, 0x05, 0x00, 0x06, 0x05,
  0xfc, 0x05, 0xf3, 0xfd, 0x01, 0x03, 0xf3, 0x04, 0x03, 0xff, 0x11, 0x51,
  0x07, 0x02, 0x05, 0xf2, 0xfc, 0xf8, 0xfc, 0x05, 0x00, 0xfa, 0x10, 0xfa,
  0x16, 0xf7, 0xf2, 0x02, 0x04, 0xff, 0x0f, 0x01, 0xfd, 0x27, 0x0c, 0xeb,
  0xfe, 0xf9, 0xff, 0xff, 0x49, 0xfb, 0xe0, 0xff, 0x01, 0x00, 0x04, 0x02,
  0xff, 0xf4, 0xfa, 0x01, 0x00, 0x02, 0x00, 0x05, 0x02, 0x00, 0x03, 0xfe,
  0xfd, 0x00, 0xf9, 0x02, 0x01, 0x05, 0xfc, 0x00, 0x04, 0xff, 0x00, 0x01,
  0x02, 0x09, 0xf9, 0xec, 0x00, 0x06, 0xff, 0x04, 0xfb, 0xfc, 0x03, 0xfe,
  0xfe, 0x05, 0xf7, 0x00, 0xf6, 0x08, 0x05, 0x01, 0x09, 0x05, 0x04, 0x02,
  0xfc, 0xe6, 0xfb, 0xfb, 0x01, 0xfc, 0x06, 0x00, 0x05, 0x03, 0x07, 0xfb,
  0x01, 0xfc, 0x05, 0xfd, 0xfa, 0xfd, 0x05, 0x07, 0xfa, 0xfe, 0xec, 0x15,
  0x01, 0x00, 0x03, 0xf4, 0x0b, 0x00, 0xfb, 0xfa, 0xfa, 0x03, 0xf1, 0xed,
  0x07, 0x04, 0xf0, 0xf6, 0x02, 0x01, 0x08, 0x1b, 0xf9, 0xfe, 0x06, 0xec,
  0xeb, 0xfc, 0x05, 0x05, 0x04, 0x05, 0x06, 0x05, 0x0d, 0x03, 0x00, 0x02,
  0x0d, 0xfe, 0x0e, 0x06, 0xfb, 0xf6, 0x1c, 0x17, 0x08, 0x03, 0x06, 0xfc,
  0x2d, 0x05, 0x15, 0x03, 0x07, 0xff, 0x02, 0x06, 0xfe, 0xf1, 0x01, 0xf8,
  0xfa, 0x04, 0xfc, 0x00, 0xfb, 0x07, 0x02, 0xff, 0xfd, 0x03, 0x03, 0x02,
  0xfc, 0x02, 0xf8, 0xf8, 0xf9, 0x02, 0xfa, 0xfd, 0xfe, 0x02, 0xfc, 0xf8,
  0x02, 0x00, 0xf7, 0x04, 0xfd, 0xf7, 0x02, 0x05, 0xfe, 0x05, 0x0d, 0xfa,
  0xfa, 0xe1, 0x20, 0xf9, 0xfd, 0xfc, 0xfe, 0x09, 0x0d, 0xdf, 0xff, 0xf9,
  0xfc, 0x02, 0x07, 0x05, 0xc4, 0x07, 0x05, 0x02, 0x00, 0xfb, 0x05, 0xf7,
  0x00, 0x06, 0x05, 0xff, 0x06, 0xfe, 0xfe, 0xfe, 0xfd, 0xf5, 0x06, 0x05,
  0x01, 0x09, 0xf9, 0xfa, 0xfb, 0x03, 0xf3, 0x05, 0x04, 0xfd, 0x00, 0x0b,
  0x05, 0x01, 0xff, 0x02, 0xfa, 0xfa, 0x07, 0xfe, 0x00, 0x03, 0x08, 0x07,
  0x01, 0x00, 0xfb, 0xf8, 0x06, 0xfb, 0x0b, 0xff, 0xfc, 0xff, 0x09, 0x08,
  0x11, 0xdb, 0x07, 0xf7, 0x10, 0x02, 0x05, 0x0c, 0x0b, 0x03, 0x03, 0x00,
  0x03, 0x04, 0x00, 0x09, 0x0b, 0x08, 0x01, 0x06, 0x05, 0xf8, 0xf0, 0x0e,
  0x08, 0x08, 0x03, 0xf2, 0x01, 0x00, 0xfb, 0x01, 0xfd, 0x04, 0xf3, 0xf6,
  0x05, 0xf7, 0xf1, 0xff, 0x00, 0xff, 0x0d, 0x29, 0xfa, 0xfb, 0x01, 0xf7,
  0xec, 0xfb, 0x06, 0x01, 0xfe, 0xff, 0x06, 0x0a, 0x26, 0x06, 0x06, 0x02,
  0xfc, 0xfd, 0x05, 0x06, 0x06, 0xe4, 0xff, 0x1c, 0x1f, 0xfd, 0xf5, 0x06,
  0x0e, 0x07, 0x19, 0xfc, 0x06, 0x06, 0xfa, 0x05, 0x04, 0xfa, 0xff, 0xfe,
  0xfe, 0xfc, 0xff, 0xff, 0x04, 0x00, 0x00, 0x00, 0x80, 0x00, 0x00, 0x00,
  0xdf, 0xff, 0xff, 0xff, 0xa8, 0xff, 0xff, 0xff, 0xea, 0xff, 0xff, 0xff,
  0x4d, 0xff, 0xff, 0xff, 0xc0, 0xfd, 0xff, 0xff, 0xc7, 0xfd, 0xff, 0xff,
  0xdb, 0xff, 0xff, 0xff, 0x02, 0xfe, 0xff, 0xff, 0x97, 0xff, 0xff, 0xff,
  0xc9, 0xff, 0xff, 0xff, 0x2d, 0xff, 0xff, 0xff, 0xaa, 0xff, 0xff, 0xff,
  0xa8, 0x00, 0x00, 0x00, 0xcc, 0x00, 0x00, 0x00, 0x53, 0x01, 0x00, 0x00,
  0xdd, 0xfd, 0xff, 0xff, 0xda, 0xff, 0xff, 0xff, 0x1b, 0x00, 0x00, 0x00,
  0x0a, 0x01, 0x00, 0x00, 0x5b, 0x01, 0x00, 0x00, 0x7a, 0xfd, 0xff, 0xff,
  0x15, 0xff, 0xff, 0xff, 0x72, 0x01, 0x00, 0x00, 0x88, 0x00, 0x00, 0x00,
  0xcf, 0xff, 0xff, 0xff, 0xda, 0xff, 0xff, 0xff, 0x14, 0xff, 0xff, 0xff,
  0xa7, 0xff, 0xff, 0xff, 0xe1, 0x01, 0x00, 0x00, 0xa6, 0xff, 0xff, 0xff,
  0x6d, 0xfe, 0xff, 0xff, 0xb3, 0xff, 0xff, 0xff, 0x8a, 0xfd, 0xff, 0xff,
  0x04, 0x00, 0x00, 0x00, 0x00, 0x02, 0x00, 0x00, 0x02, 0xfe, 0x08, 0x0d,
  0x2e, 0x08, 0xfe, 0x2c, 0x03, 0x05, 0x00, 0xf9, 0xf7, 0xf8, 0xfa, 0x07,
  0x08, 0x00, 0x00, 0xfb, 0x09, 0x07, 0xf3, 0xf4, 0xfe, 0x0a, 0xd8, 0x05,
  0x05, 0xfe, 0x0b, 0x01, 0xfe, 0xfb, 0x81, 0x73, 0xfe, 0xf5, 0x0a, 0xeb,
  0x09, 0x07, 0xf4, 0x07, 0x0c, 0xf7, 0x0a, 0xf9, 0xfb, 0xf7, 0x02, 0x01,
  0xed, 0xf1, 0xfa, 0x29, 0x02, 0x00, 0xf6, 0xf7, 0xfc, 0x0a, 0xec, 0x1c,
  0xf8, 0xfa, 0x02, 0x01, 0x08, 0x05, 0xf6, 0xf5, 0xfe, 0xfc, 0xfc, 0xfc,
  0xf4, 0xf2, 0xf4, 0xfd, 0x06, 0x0a, 0xf7, 0xf7, 0xf4, 0xfb, 0x08, 0x02,
  0x01, 0x05, 0xfa, 0x00, 0xf3, 0x02, 0xf5, 0x0a, 0x00, 0x02, 0xff, 0xfd,
  0xf9, 0xf9, 0xfd, 0xf9, 0xf7, 0xf7, 0xff, 0x04, 0xe5, 0x02, 0xfb, 0xfa,
  0x05, 0x0a, 0xf0, 0xdd, 0x09, 0x0d, 0xe5, 0x09, 0x04, 0xfb, 0x00, 0xfb,
  0xef, 0xff, 0xfa, 0xf5, 0x02, 0xf3, 0xe6, 0xfe, 0x29, 0x05, 0x05, 0x28,
  0xf0, 0xfd, 0x09, 0x03, 0xfc, 0x03, 0x13, 0x01, 0xf6, 0x0c, 0xf0, 0x0a,
  0x08, 0x05, 0x14, 0x10, 0x02, 0x00, 0x15, 0x06, 0x03, 0x03, 0xf9, 0xfb,
  0xf9, 0xf3, 0xf5, 0xff, 0x02, 0xf4, 0xff, 0xf9, 0xfb, 0xff, 0xf9, 0x0d,
  0x01, 0xf8, 0xfe, 0xf0, 0xfc, 0xf2, 0xfb, 0x02, 0x01, 0xff, 0x04, 0x00,
  0x07, 0xf8, 0xfb, 0xfa, 0xfc, 0x0c, 0x03, 0xf3, 0x01, 0xf2, 0x12, 0xfc,
  0xf2, 0x01, 0x04, 0xef, 0xf3, 0xf9, 0xfa, 0xf5, 0x11, 0xfd, 0x14, 0x01,
  0x09, 0x04, 0x12, 0x11, 0xf2, 0xf6, 0x0f, 0x09, 0x01, 0x02, 0xfb, 0xf9,
  0x04, 0xf6, 0x08, 0x1a, 0x03, 0xf6, 0x01, 0x01, 0xf5, 0xef, 0xf0, 0xf2,
  0x09, 0xfb, 0xf3, 0x04, 0x12, 0xfe, 0x1f, 0xf4, 0xfa, 0x26, 0x09, 0xf8,
  0xdf, 0xf4, 0x19, 0x39, 0x0a, 0xf9, 0x04, 0x00, 0x11, 0x00, 0xeb, 0x07,
  0xe9, 0x05, 0xfb, 0x31, 0xea, 0x01, 0xf1, 0xf1, 0x01, 0xf5, 0xfd, 0xf7,
  0x06, 0xee, 0x0b, 0xf8, 0x05, 0x0d, 0x03, 0x06, 0xfb, 0x07, 0x0a, 0xf0,
  0xf6, 0xfa, 0x31, 0x07, 0x04, 0x09, 0xf3, 0xef, 0xf4, 0xfb, 0x05, 0xea,
  0xe3, 0xeb, 0xef, 0xe2, 0x09, 0x00, 0x03, 0xfa, 0x18, 0x14, 0x07, 0xf3,
  0xf8, 0x12, 0x10, 0x11, 0xf2, 0x08, 0x15, 0x0a, 0x04, 0xfe, 0x07, 0x0a,
  0x0c, 0xf3, 0xfd, 0x1c, 0xf7, 0x02, 0xfc, 0xfc, 0xf3, 0xf7, 0x02, 0xff,
  0x02, 0x00, 0xf3, 0xfc, 0xf0, 0x08, 0xfd, 0x03, 0x07, 0xfd, 0x00, 0xef,
  0xfc, 0xf6, 0x03, 0xf2, 0x02, 0x00, 0xf6, 0x03, 0x04, 0xf2, 0xf0, 0xf5,
  0x05, 0xf6, 0x03, 0xf5, 0xf3, 0xfa, 0x06, 0xef, 0xf0, 0xf9, 0x01, 0x10,
  0x1b, 0x13, 0x12, 0xf9, 0xf6, 0x11, 0x02, 0x1b, 0x01, 0x03, 0x15, 0x0d,
  0xf3, 0x09, 0xed, 0xf4, 0x16, 0xf8, 0x06, 0x1d, 0xf0, 0xf7, 0x1b, 0xff,
  0x00, 0xfc, 0xe1, 0xf6, 0x01, 0x00, 0xf6, 0xf9, 0xef, 0xe6, 0xf5, 0x08,
  0xf7, 0xe5, 0xed, 0xe5, 0x08, 0x12, 0xc9, 0xe3, 0x04, 0x01, 0x01, 0x08,
  0xcf, 0xef, 0xf3, 0x00, 0xfb, 0x07, 0xf8, 0xf7, 0xf5, 0xfc, 0xf4, 0xf6,
  0x08, 0xf4, 0xf7, 0xf9, 0x01, 0x01, 0xf4, 0x02, 0xff, 0x02, 0xf3, 0xf1,
  0x05, 0x09, 0xf5, 0x0b, 0xf9, 0x00, 0xf9, 0xf3, 0xfb, 0x0a, 0xfb, 0xfc,
  0xf8, 0xf4, 0x0d, 0xf9, 0xec, 0x0b, 0xf7, 0xe7, 0xf0, 0xfd, 0x01, 0x02,
  0x0d, 0x0f, 0x02, 0x00, 0x0a, 0x05, 0x0f, 0x0a, 0x08, 0xfd, 0x0d, 0x03,
  0xfa, 0xfe, 0xe6, 0x04, 0x1f, 0xfd, 0xf3, 0x14, 0x01, 0xfa, 0xf6, 0x66,
  0xf1, 0xfa, 0x03, 0xf9, 0x13, 0xfc, 0x08, 0x07, 0xf6, 0xea, 0x03, 0x03,
  0xfa, 0xf4, 0xfb, 0x00, 0xf3, 0xe2, 0xf4, 0x04, 0xfb, 0xfd, 0xf1, 0xf7,
  0xe5, 0xf2, 0xef, 0xf4, 0x96, 0xff, 0xff, 0xff, 0x04, 0x00, 0x00, 0x00,
  0x40, 0x00, 0x00, 0x00, 0xa2, 0xff, 0xff, 0xff, 0xde, 0xff, 0xff, 0xff,
  0xef, 0xff, 0xff, 0xff, 0xec, 0xff, 0xff, 0xff, 0x8d, 0xff, 0xff, 0xff,
  0xee, 0xff, 0xff, 0xff, 0x8d, 0x00, 0x00, 0x00, 0x04, 0x00, 0x00, 0x00,
  0x3b, 0x00, 0x00, 0x00, 0x42, 0x00, 0x00, 0x00, 0xee, 0xff, 0xff, 0xff,
  0x94, 0x00, 0x00, 0x00, 0x6b, 0xff, 0xff, 0xff, 0xf7, 0xff, 0xff, 0xff,
  0x61, 0x00, 0x00, 0x00, 0x0f, 0x00, 0x00, 0x00, 0xe2, 0xff, 0xff, 0xff,
  0x04, 0x00, 0x00, 0x00, 0x10, 0x00, 0x00, 0x00, 0x81, 0xf7, 0x29, 0xf9,
  0x8f, 0x17, 0x38, 0x2a, 0x0d, 0x2c, 0xd3, 0x3f, 0x00, 0x20, 0x2a, 0xff,
  0x00, 0x00, 0x06, 0x00, 0x08, 0x00, 0x04, 0x00, 0x06, 0x00, 0x00, 0x00,
  0x04, 0x00, 0x00, 0x00, 0x04, 0x00, 0x00, 0x00, 0x99, 0x00, 0x00, 0x00,
  0x4c, 0xff, 0xff, 0xff, 0x50, 0xff, 0xff, 0xff, 0x0f, 0x00, 0x00, 0x00,
  0x4d, 0x4c, 0x49, 0x52, 0x20, 0x43, 0x6f, 0x6e, 0x76, 0x65, 0x72, 0x74,
  0x65, 0x64, 0x2e, 0x00, 0x01, 0x00, 0x00, 0x00, 0x14, 0x00, 0x00, 0x00,
  0x00, 0x00, 0x0e, 0x00, 0x18, 0x00, 0x14, 0x00, 0x10, 0x00, 0x0c, 0x00,
  0x08, 0x00, 0x04, 0x00, 0x0e, 0x00, 0x00, 0x00, 0x14, 0x00, 0x00, 0x00,
  0x1c, 0x00, 0x00, 0x00, 0x7c, 0x01, 0x00, 0x00, 0x80, 0x01, 0x00, 0x00,
  0x84, 0x01, 0x00, 0x00, 0x04, 0x00, 0x00, 0x00, 0x6d, 0x61, 0x69, 0x6e,
  0x00, 0x00, 0x00, 0x00, 0x06, 0x00, 0x00, 0x00, 0x24, 0x01, 0x00, 0x00,
  0xdc, 0x00, 0x00, 0x00, 0xa4, 0x00, 0x00, 0x00, 0x6c, 0x00, 0x00, 0x00,
  0x34, 0x00, 0x00, 0x00, 0x10, 0x00, 0x00, 0x00, 0x00, 0x00, 0x0a, 0x00,
  0x10, 0x00, 0x0c, 0x00, 0x08, 0x00, 0x04, 0x00, 0x0a, 0x00, 0x00, 0x00,
  0x0c, 0x00, 0x00, 0x00, 0x10, 0x00, 0x00, 0x00, 0x01, 0x00, 0x00, 0x00,
  0x01, 0x00, 0x00, 0x00, 0x10, 0x00, 0x00, 0x00, 0x01, 0x00, 0x00, 0x00,
  0x0f, 0x00, 0x00, 0x00, 0x2e, 0xff, 0xff, 0xff, 0x14, 0x00, 0x00, 0x00,
  0x00, 0x00, 0x00, 0x08, 0x10, 0x00, 0x00, 0x00, 0x14, 0x00, 0x00, 0x00,
  0x04, 0x00, 0x04, 0x00, 0x04, 0x00, 0x00, 0x00, 0x01, 0x00, 0x00, 0x00,
  0x0f, 0x00, 0x00, 0x00, 0x03, 0x00, 0x00, 0x00, 0x0e, 0x00, 0x00, 0x00,
  0x02, 0x00, 0x00, 0x00, 0x01, 0x00, 0x00, 0x00, 0x62, 0xff, 0xff, 0xff,
  0x10, 0x00, 0x00, 0x00, 0x00, 0x00, 0x00, 0x08, 0x10, 0x00, 0x00, 0x00,
  0x14, 0x00, 0x00, 0x00, 0x52, 0xff, 0xff, 0xff, 0x00, 0x00, 0x00, 0x01,
  0x01, 0x00, 0x00, 0x00, 0x0e, 0x00, 0x00, 0x00, 0x03, 0x00, 0x00, 0x00,
  0x0d, 0x00, 0x00, 0x00, 0x04, 0x00, 0x00, 0x00, 0x03, 0x00, 0x00, 0x00,
  0x96, 0xff, 0xff, 0xff, 0x10, 0x00, 0x00, 0x00, 0x00, 0x00, 0x00, 0x08,
  0x10, 0x00, 0x00, 0x00, 0x14, 0x00, 0x00, 0x00, 0x86, 0xff, 0xff, 0xff,
  0x00, 0x00, 0x00, 0x01, 0x01, 0x00, 0x00, 0x00, 0x0d, 0x00, 0x00, 0x00,
  0x03, 0x00, 0x00, 0x00, 0x0c, 0x00, 0x00, 0x00, 0x06, 0x00, 0x00, 0x00,
  0x05, 0x00, 0x00, 0x00, 0xca, 0xff, 0xff, 0xff, 0x10, 0x00, 0x00, 0x00,
  0x00, 0x00, 0x00, 0x08, 0x10, 0x00, 0x00, 0x00, 0x14, 0x00, 0x00, 0x00,
  0xba, 0xff, 0xff, 0xff, 0x00, 0x00, 0x00, 0x01, 0x01, 0x00, 0x00, 0x00,
  0x0c, 0x00, 0x00, 0x00, 0x03, 0x00, 0x00, 0x00, 0x0b, 0x00, 0x00, 0x00,
  0x08, 0x00, 0x00, 0x00, 0x07, 0x00, 0x00, 0x00, 0x00, 0x00, 0x0e, 0x00,
  0x16, 0x00, 0x00, 0x00, 0x10, 0x00, 0x0c, 0x00, 0x0b, 0x00, 0x04, 0x00,
  0x0e, 0x00, 0x00, 0x00, 0x18, 0x00, 0x00, 0x00, 0x00, 0x00, 0x00, 0x08,
  0x18, 0x00, 0x00, 0x00, 0x1c, 0x00, 0x00, 0x00, 0x00, 0x00, 0x06, 0x00,
  0x08, 0x00, 0x07, 0x00, 0x06, 0x00, 0x00, 0x00, 0x00, 0x00, 0x00, 0x01,
  0x01, 0x00, 0x00, 0x00, 0x0b, 0x00, 0x00, 0x00, 0x03, 0x00, 0x00, 0x00,
  0x00, 0x00, 0x00, 0x00, 0x0a, 0x00, 0x00, 0x00, 0x09, 0x00, 0x00, 0x00,
  0x01, 0x00, 0x00, 0x00, 0x10, 0x00, 0x00, 0x00, 0x01, 0x00, 0x00, 0x00,
  0x00, 0x00, 0x00, 0x00, 0x11, 0x00, 0x00, 0x00, 0xf0, 0x08, 0x00, 0x00,
  0x58, 0x08, 0x00, 0x00, 0xcc, 0x07, 0x00, 0x00, 0x50, 0x07, 0x00, 0x00,
  0xdc, 0x06, 0x00, 0x00, 0x60, 0x06, 0x00, 0x00, 0xec, 0x05, 0x00, 0x00,
  0x70, 0x05, 0x00, 0x00, 0xfc, 0x04, 0x00, 0x00, 0x80, 0x04, 0x00, 0x00,
  0x0c, 0x04, 0x00, 0x00, 0x50, 0x03, 0x00, 0x00, 0x94, 0x02, 0x00, 0x00,
  0xd8, 0x01, 0x00, 0x00, 0x1c, 0x01, 0x00, 0x00, 0x80, 0x00, 0x00, 0x00,
  0x04, 0x00, 0x00, 0x00, 0x6a, 0xf7, 0xff, 0xff, 0x00, 0x00, 0x00, 0x01,
  0x18, 0x00, 0x00, 0x00, 0x20, 0x00, 0x00, 0x00, 0x3c, 0x00, 0x00, 0x00,
  0x11, 0x00, 0x00, 0x00, 0x00, 0x00, 0x00, 0x09, 0x50, 0x00, 0x00, 0x00,
  0x02, 0x00, 0x00, 0x00, 0xff, 0xff, 0xff, 0xff, 0x01, 0x00, 0x00, 0x00,
  0x54, 0xf7, 0xff, 0xff, 0x08, 0x00, 0x00, 0x00, 0x10, 0x00, 0x00, 0x00,
  0x01, 0x00, 0x00, 0x00, 0x80, 0xff, 0xff, 0xff, 0xff, 0xff, 0xff, 0xff,
  0x01, 0x00, 0x00, 0x00, 0x00, 0x00, 0x80, 0x3b, 0x19, 0x00, 0x00, 0x00,
  0x53, 0x74, 0x61, 0x74, 0x65, 0x66, 0x75, 0x6c, 0x50, 0x61, 0x72, 0x74,
  0x69, 0x74, 0x69, 0x6f, 0x6e, 0x65, 0x64, 0x43, 0x61, 0x6c, 0x6c, 0x3a,
  0x30, 0x00, 0x00, 0x00, 0x02, 0x00, 0x00, 0x00, 0x01, 0x00, 0x00, 0x00,
  0x01, 0x00, 0x00, 0x00, 0xe2, 0xf7, 0xff, 0xff, 0x00, 0x00, 0x00, 0x01,
  0x18, 0x00, 0x00, 0x00, 0x20, 0x00, 0x00, 0x00, 0x3c, 0x00, 0x00, 0x00,
  0x10, 0x00, 0x00, 0x00, 0x00, 0x00, 0x00, 0x09, 0x70, 0x00, 0x00, 0x00,
  0x02, 0x00, 0x00, 0x00, 0xff, 0xff, 0xff, 0xff, 0x01, 0x00, 0x00, 0x00,
  0xcc, 0xf7, 0xff, 0xff, 0x08, 0x00, 0x00, 0x00, 0x10, 0x00, 0x00, 0x00,
  0x01, 0x00, 0x00, 0x00, 0x2b, 0x00, 0x00, 0x00, 0x00, 0x00, 0x00, 0x00,
  0x01, 0x00, 0x00, 0x00, 0x17, 0x88, 0x00, 0x40, 0x3a, 0x00, 0x00, 0x00,
  0x73, 0x65, 0x71, 0x75, 0x65, 0x6e, 0x74, 0x69, 0x61, 0x6c, 0x5f, 0x36,
  0x2f, 0x64, 0x65, 0x6e, 0x73, 0x65, 0x5f, 0x33, 0x34, 0x2f, 0x4d, 0x61,
  0x74, 0x4d, 0x75, 0x6c, 0x3b, 0x73, 0x65, 0x71, 0x75, 0x65, 0x6e, 0x74,
  0x69, 0x61, 0x6c, 0x5f, 0x36, 0x2f, 0x64, 0x65, 0x6e, 0x73, 0x65, 0x5f,
  0x33, 0x34, 0x2f, 0x42, 0x69, 0x61, 0x73, 0x41, 0x64, 0x64, 0x00, 0x00,
  0x02, 0x00, 0x00, 0x00, 0x01, 0x00, 0x00, 0x00, 0x01, 0x00, 0x00, 0x00,
  0x7a, 0xf8, 0xff, 0xff, 0x00, 0x00, 0x00, 0x01, 0x18, 0x00, 0x00, 0x00,
  0x20, 0x00, 0x00, 0x00, 0x40, 0x00, 0x00, 0x00, 0x0f, 0x00, 0x00, 0x00,
  0x00, 0x00, 0x00, 0x09, 0x90, 0x00, 0x00, 0x00, 0x02, 0x00, 0x00, 0x00,
  0xff, 0xff, 0xff, 0xff, 0x10, 0x00, 0x00, 0x00, 0x64, 0xf8, 0xff, 0xff,
  0x08, 0x00, 0x00, 0x00, 0x14, 0x00, 0x00, 0x00, 0x01, 0x00, 0x00, 0x00,
  0x80, 0xff, 0xff, 0xff, 0xff, 0xff, 0xff, 0xff, 0x00, 0x00, 0x00, 0x00,
  0x01, 0x00, 0x00, 0x00, 0xb5, 0xf2, 0x1d, 0x3f, 0x55, 0x00, 0x00, 0x00,
  0x73, 0x65, 0x71, 0x75, 0x65, 0x6e, 0x74, 0x69, 0x61, 0x6c, 0x5f, 0x36,
  0x2f, 0x64, 0x65, 0x6e, 0x73, 0x65, 0x5f, 0x33, 0x33, 0x2f, 0x4d, 0x61,
  0x74, 0x4d, 0x75, 0x6c, 0x3b, 0x73, 0x65, 0x71, 0x75, 0x65, 0x6e, 0x74,
  0x69, 0x61, 0x6c, 0x5f, 0x36, 0x2f, 0x64, 0x65, 0x6e, 0x73, 0x65, 0x5f,
  0x33, 0x33, 0x2f, 0x52, 0x65, 0x6c, 0x75, 0x3b, 0x73, 0x65, 0x71, 0x75,
  0x65, 0x6e, 0x74, 0x69, 0x61, 0x6c, 0x5f, 0x36, 0x2f, 0x64, 0x65, 0x6e,
  0x73, 0x65, 0x5f, 0x33, 0x33, 0x2f, 0x42, 0x69, 0x61, 0x73, 0x41, 0x64,
  0x64, 0x00, 0x00, 0x00, 0x02, 0x00, 0x00, 0x00, 0x01, 0x00, 0x00, 0x00,
  0x10, 0x00, 0x00, 0x00, 0x32, 0xf9, 0xff, 0xff, 0x00, 0x00, 0x00, 0x01,
  0x18, 0x00, 0x00, 0x00, 0x20, 0x00, 0x00, 0x00, 0x40, 0x00, 0x00, 0x00,
  0x0e, 0x00, 0x00, 0x00, 0x00, 0x00, 0x00, 0x09, 0x90, 0x00, 0x00, 0x00,
  0x02, 0x00, 0x00, 0x00, 0xff, 0xff, 0xff, 0xff, 0x20, 0x00, 0x00, 0x00,
  0x1c, 0xf9, 0xff, 0xff, 0x08, 0x00, 0x00, 0x00, 0x14, 0x00, 0x00, 0x00,
  0x01, 0x00, 0x00, 0x00, 0x80, 0xff, 0xff, 0xff, 0xff, 0xff, 0xff, 0xff,
  0x00, 0x00, 0x00, 0x00, 0x01, 0x00, 0x00, 0x00, 0xaf, 0x90, 0x86, 0x3e,
  0x55, 0x00, 0x00, 0x00, 0x73, 0x65, 0x71, 0x75, 0x65, 0x6e, 0x74, 0x69,
  0x61, 0x6c, 0x5f, 0x36, 0x2f, 0x64, 0x65, 0x6e, 0x73, 0x65, 0x5f, 0x33,
  0x32, 0x2f, 0x4d, 0x61, 0x74, 0x4d, 0x75, 0x6c, 0x3b, 0x73, 0x65, 0x71,
  0x75, 0x65, 0x6e, 0x74, 0x69, 0x61, 0x6c, 0x5f, 0x36, 0x2f, 0x64, 0x65,
  0x6e, 0x73, 0x65, 0x5f, 0x33, 0x32, 0x2f, 0x52, 0x65, 0x6c, 0x75, 0x3b,
  0x73, 0x65, 0x71, 0x75, 0x65, 0x6e, 0x74, 0x69, 0x61, 0x6c, 0x5f, 0x36,
  0x2f, 0x64, 0x65, 0x6e, 0x73, 0x65, 0x5f, 0x33, 0x32, 0x2f, 0x42, 0x69,
  0x61, 0x73, 0x41, 0x64, 0x64, 0x00, 0x00, 0x00, 0x02, 0x00, 0x00, 0x00,
  0x01, 0x00, 0x00, 0x00, 0x20, 0x00, 0x00, 0x00, 0xea, 0xf9, 0xff, 0xff,
  0x00, 0x00, 0x00, 0x01, 0x18, 0x00, 0x00, 0x00, 0x20, 0x00, 0x00, 0x00,
  0x40, 0x00, 0x00, 0x00, 0x0d, 0x00, 0x00, 0x00, 0x00, 0x00, 0x00, 0x09,
  0x90, 0x00, 0x00, 0x00, 0x02, 0x00, 0x00, 0x00, 0xff, 0xff, 0xff, 0xff,
  0x40, 0x00, 0x00, 0x00, 0xd4, 0xf9, 0xff, 0xff, 0x08, 0x00, 0x00, 0x00,
  0x14, 0x00, 0x00, 0x00, 0x01, 0x00, 0x00, 0x00, 0x80, 0xff, 0xff, 0xff,
  0xff, 0xff, 0xff, 0xff, 0x00, 0x00, 0x00, 0x00, 0x01, 0x00, 0x00, 0x00,
  0xa1, 0x16, 0x42, 0x3d, 0x55, 0x00, 0x00, 0x00, 0x73, 0x65, 0x71, 0x75,
  0x65, 0x6e, 0x74, 0x69, 0x61, 0x6c, 0x5f, 0x36, 0x2f, 0x64, 0x65, 0x6e,
  0x73, 0x65, 0x5f, 0x33, 0x31, 0x2f, 0x4d, 0x61, 0x74, 0x4d, 0x75, 0x6c,
  0x3b, 0x73, 0x65, 0x71, 0x75, 0x65, 0x6e, 0x74, 0x69, 0x61, 0x6c, 0x5f,
  0x36, 0x2f, 0x64, 0x65, 0x6e, 0x73, 0x65, 0x5f, 0x33, 0x31, 0x2f, 0x52,
  0x65, 0x6c, 0x75, 0x3b, 0x73, 0x65, 0x71, 0x75, 0x65, 0x6e, 0x74, 0x69,
  0x61, 0x6c, 0x5f, 0x36, 0x2f, 0x64, 0x65, 0x6e, 0x73, 0x65, 0x5f, 0x33,
  0x31, 0x2f, 0x42, 0x69, 0x61, 0x73, 0x41, 0x64, 0x64, 0x00, 0x00, 0x00,
  0x02, 0x00, 0x00, 0x00, 0x01, 0x00, 0x00, 0x00, 0x40, 0x00, 0x00, 0x00,
  0xa2, 0xfa, 0xff, 0xff, 0x00, 0x00, 0x00, 0x01, 0x18, 0x00, 0x00, 0x00,
  0x20, 0x00, 0x00, 0x00, 0x40, 0x00, 0x00, 0x00, 0x0c, 0x00, 0x00, 0x00,
  0x00, 0x00, 0x00, 0x09, 0x90, 0x00, 0x00, 0x00, 0x02, 0x00, 0x00, 0x00,
  0xff, 0xff, 0xff, 0xff, 0x80, 0x00, 0x00, 0x00, 0x8c, 0xfa, 0xff, 0xff,
  0x08, 0x00, 0x00, 0x00, 0x14, 0x00, 0x00, 0x00, 0x01, 0x00, 0x00, 0x00,
  0x80, 0xff, 0xff, 0xff, 0xff, 0xff, 0xff, 0xff, 0x00, 0x00, 0x00, 0x00,
  0x01, 0x00, 0x00, 0x00, 0xe0, 0xe1, 0x26, 0x3c, 0x55, 0x00, 0x00, 0x00,
  0x73, 0x65, 0x71, 0x75, 0x65, 0x6e, 0x74, 0x69, 0x61, 0x6c, 0x5f, 0x36,
  0x2f, 0x64, 0x65, 0x6e, 0x73, 0x65, 0x5f, 0x33, 0x30, 0x2f, 0x4d, 0x61,
  0x74, 0x4d, 0x75, 0x6c, 0x3b, 0x73, 0x65, 0x71, 0x75, 0x65, 0x6e, 0x74,
  0x69, 0x61, 0x6c, 0x5f, 0x36, 0x2f, 0x64, 0x65, 0x6e, 0x73, 0x65, 0x5f,
  0x33, 0x30, 0x2f, 0x52, 0x65, 0x6c, 0x75, 0x3b, 0x73, 0x65, 0x71, 0x75,
  0x65, 0x6e, 0x74, 0x69, 0x61, 0x6c, 0x5f, 0x36, 0x2f, 0x64, 0x65, 0x6e,
  0x73, 0x65, 0x5f, 0x33, 0x30, 0x2f, 0x42, 0x69, 0x61, 0x73, 0x41, 0x64,
  0x64, 0x00, 0x00, 0x00, 0x02, 0x00, 0x00, 0x00, 0x01, 0x00, 0x00, 0x00,
  0x80, 0x00, 0x00, 0x00, 0xee, 0xfb, 0xff, 0xff, 0x00, 0x00, 0x00, 0x01,
  0x14, 0x00, 0x00, 0x00, 0x34, 0x00, 0x00, 0x00, 0x0b, 0x00, 0x00, 0x00,
  0x00, 0x00, 0x00, 0x09, 0x4c, 0x00, 0x00, 0x00, 0x34, 0xfb, 0xff, 0xff,
  0x08, 0x00, 0x00, 0x00, 0x14, 0x00, 0x00, 0x00, 0x01, 0x00, 0x00, 0x00,
  0x00, 0x00, 0x00, 0x00, 0x00, 0x00, 0x00, 0x00, 0x00, 0x00, 0x00, 0x00,
  0x01, 0x00, 0x00, 0x00, 0xae, 0x07, 0xab, 0x3b, 0x1c, 0x00, 0x00, 0x00,
  0x73, 0x65, 0x71, 0x75, 0x65, 0x6e, 0x74, 0x69, 0x61, 0x6c, 0x5f, 0x36,
  0x2f, 0x64, 0x65, 0x6e, 0x73, 0x65, 0x5f, 0x33, 0x30, 0x2f, 0x4d, 0x61,
  0x74, 0x4d, 0x75, 0x6c, 0x00, 0x00, 0x00, 0x00, 0x02, 0x00, 0x00, 0x00,
  0x80, 0x00, 0x00, 0x00, 0x02, 0x00, 0x00, 0x00, 0x5e, 0xfc, 0xff, 0xff,
  0x00, 0x00, 0x00, 0x01, 0x14, 0x00, 0x00, 0x00, 0x30, 0x00, 0x00, 0x00,
  0x0a, 0x00, 0x00, 0x00, 0x00, 0x00, 0x00, 0x02, 0x58, 0x00, 0x00, 0x00,
  0xa4, 0xfb, 0xff, 0xff, 0x08, 0x00, 0x00, 0x00, 0x10, 0x00, 0x00, 0x00,
  0x01, 0x00, 0x00, 0x00, 0x00, 0x00, 0x00, 0x00, 0x00, 0x00, 0x00, 0x00,
  0x01, 0x00, 0x00, 0x00, 0x31, 0xda, 0x86, 0x39, 0x2c, 0x00, 0x00, 0x00,
  0x73, 0x65, 0x71, 0x75, 0x65, 0x6e, 0x74, 0x69, 0x61, 0x6c, 0x5f, 0x36,
  0x2f, 0x64, 0x65, 0x6e, 0x73, 0x65, 0x5f, 0x33, 0x30, 0x2f, 0x42, 0x69,
  0x61, 0x73, 0x41, 0x64, 0x64, 0x2f, 0x52, 0x65, 0x61, 0x64, 0x56, 0x61,
  0x72, 0x69, 0x61, 0x62, 0x6c, 0x65, 0x4f, 0x70, 0x00, 0x00, 0x00, 0x00,
  0x01, 0x00, 0x00, 0x00, 0x80, 0x00, 0x00, 0x00, 0xd6, 0xfc, 0xff, 0xff,
  0x00, 0x00, 0x00, 0x01, 0x14, 0x00, 0x00, 0x00, 0x34, 0x00, 0x00, 0x00,
  0x09, 0x00, 0x00, 0x00, 0x00, 0x00, 0x00, 0x09, 0x4c, 0x00, 0x00, 0x00,
  0x1c, 0xfc, 0xff, 0xff, 0x08, 0x00, 0x00, 0x00, 0x14, 0x00, 0x00, 0x00,
  0x01, 0x00, 0x00, 0x00, 0x00, 0x00, 0x00, 0x00, 0x00, 0x00, 0x00, 0x00,
  0x00, 0x00, 0x00, 0x00, 0x01, 0x00, 0x00, 0x00, 0x8a, 0x6d, 0xff, 0x3c,
  0x1c, 0x00, 0x00, 0x00, 0x73, 0x65, 0x71, 0x75, 0x65, 0x6e, 0x74, 0x69,
  0x61, 0x6c, 0x5f, 0x36, 0x2f, 0x64, 0x65, 0x6e, 0x73, 0x65, 0x5f, 0x33,
  0x31, 0x2f, 0x4d, 0x61, 0x74, 0x4d, 0x75, 0x6c, 0x00, 0x00, 0x00, 0x00,
  0x02, 0x00, 0x00, 0x00, 0x40, 0x00, 0x00, 0x00, 0x80, 0x00, 0x00, 0x00,
  0x46, 0xfd, 0xff, 0xff, 0x00, 0x00, 0x00, 0x01, 0x14, 0x00, 0x00, 0x00,
  0x30, 0x00, 0x00, 0x00, 0x08, 0x00, 0x00, 0x00, 0x00, 0x00, 0x00, 0x02,
  0x58, 0x00, 0x00, 0x00, 0x8c, 0xfc, 0xff, 0xff, 0x08, 0x00, 0x00, 0x00,
  0x10, 0x00, 0x00, 0x00, 0x01, 0x00, 0x00, 0x00, 0x00, 0x00, 0x00, 0x00,
  0x00, 0x00, 0x00, 0x00, 0x01, 0x00, 0x00, 0x00, 0x66, 0x82, 0xa6, 0x39,
  0x2c, 0x00, 0x00, 0x00, 0x73, 0x65, 0x71, 0x75, 0x65, 0x6e, 0x74, 0x69,
  0x61, 0x6c, 0x5f, 0x36, 0x2f, 0x64, 0x65, 0x6e, 0x73, 0x65, 0x5f, 0x33,
  0x31, 0x2f, 0x42, 0x69, 0x61, 0x73, 0x41, 0x64, 0x64, 0x2f, 0x52, 0x65,
  0x61, 0x64, 0x56, 0x61, 0x72, 0x69, 0x61, 0x62, 0x6c, 0x65, 0x4f, 0x70,
  0x00, 0x00, 0x00, 0x00, 0x01, 0x00, 0x00, 0x00, 0x40, 0x00, 0x00, 0x00,
  0xbe, 0xfd, 0xff, 0xff, 0x00, 0x00, 0x00, 0x01, 0x14, 0x00, 0x00, 0x00,
  0x34, 0x00, 0x00, 0x00, 0x07, 0x00, 0x00, 0x00, 0x00, 0x00, 0x00, 0x09,
  0x4c, 0x00, 0x00, 0x00, 0x04, 0xfd, 0xff, 0xff, 0x08, 0x00, 0x00, 0x00,
  0x14, 0x00, 0x00, 0x00, 0x01, 0x00, 0x00, 0x00, 0x00, 0x00, 0x00, 0x00,
  0x00, 0x00, 0x00, 0x00, 0x00, 0x00, 0x00, 0x00, 0x01, 0x00, 0x00, 0x00,
  0x74, 0x76, 0x08, 0x3d, 0x1c, 0x00, 0x00, 0x00, 0x73, 0x65, 0x71, 0x75,
  0x65, 0x6e, 0x74, 0x69, 0x61, 0x6c, 0x5f, 0x36, 0x2f, 0x64, 0x65, 0x6e,
  0x73, 0x65, 0x5f, 0x33, 0x32, 0x2f, 0x4d, 0x61, 0x74, 0x4d, 0x75, 0x6c,
  0x00, 0x00, 0x00, 0x00, 0x02, 0x00, 0x00, 0x00, 0x20, 0x00, 0x00, 0x00,
  0x40, 0x00, 0x00, 0x00, 0x2e, 0xfe, 0xff, 0xff, 0x00, 0x00, 0x00, 0x01,
  0x14, 0x00, 0x00, 0x00, 0x30, 0x00, 0x00, 0x00, 0x06, 0x00, 0x00, 0x00,
  0x00, 0x00, 0x00, 0x02, 0x58, 0x00, 0x00, 0x00, 0x74, 0xfd, 0xff, 0xff,
  0x08, 0x00, 0x00, 0x00, 0x10, 0x00, 0x00, 0x00, 0x01, 0x00, 0x00, 0x00,
  0x00, 0x00, 0x00, 0x00, 0x00, 0x00, 0x00, 0x00, 0x01, 0x00, 0x00, 0x00,
  0xa8, 0xeb, 0xce, 0x3a, 0x2c, 0x00, 0x00, 0x00, 0x73, 0x65, 0x71, 0x75,
  0x65, 0x6e, 0x74, 0x69, 0x61, 0x6c, 0x5f, 0x36, 0x2f, 0x64, 0x65, 0x6e,
  0x73, 0x65, 0x5f, 0x33, 0x32, 0x2f, 0x42, 0x69, 0x61, 0x73, 0x41, 0x64,
  0x64, 0x2f, 0x52, 0x65, 0x61, 0x64, 0x56, 0x61, 0x72, 0x69, 0x61, 0x62,
  0x6c, 0x65, 0x4f, 0x70, 0x00, 0x00, 0x00, 0x00, 0x01, 0x00, 0x00, 0x00,
  0x20, 0x00, 0x00, 0x00, 0xa6, 0xfe, 0xff, 0xff, 0x00, 0x00, 0x00, 0x01,
  0x14, 0x00, 0x00, 0x00, 0x34, 0x00, 0x00, 0x00, 0x05, 0x00, 0x00, 0x00,
  0x00, 0x00, 0x00, 0x09, 0x4c, 0x00, 0x00, 0x00, 0xec, 0xfd, 0xff, 0xff,
  0x08, 0x00, 0x00, 0x00, 0x14, 0x00, 0x00, 0x00, 0x01, 0x00, 0x00, 0x00,
  0x00, 0x00, 0x00, 0x00, 0x00, 0x00, 0x00, 0x00, 0x00, 0x00, 0x00, 0x00,
  0x01, 0x00, 0x00, 0x00, 0x0a, 0x05, 0xd2, 0x3c, 0x1c, 0x00, 0x00, 0x00,
  0x73, 0x65, 0x71, 0x75, 0x65, 0x6e, 0x74, 0x69, 0x61, 0x6c, 0x5f, 0x36,
  0x2f, 0x64, 0x65, 0x6e, 0x73, 0x65, 0x5f, 0x33, 0x33, 0x2f, 0x4d, 0x61,
  0x74, 0x4d, 0x75, 0x6c, 0x00, 0x00, 0x00, 0x00, 0x02, 0x00, 0x00, 0x00,
  0x10, 0x00, 0x00, 0x00, 0x20, 0x00, 0x00, 0x00, 0x16, 0xff, 0xff, 0xff,
  0x00, 0x00, 0x00, 0x01, 0x14, 0x00, 0x00, 0x00, 0x30, 0x00, 0x00, 0x00,
  0x04, 0x00, 0x00, 0x00, 0x00, 0x00, 0x00, 0x02, 0x58, 0x00, 0x00, 0x00,
  0x5c, 0xfe, 0xff, 0xff, 0x08, 0x00, 0x00, 0x00, 0x10, 0x00, 0x00, 0x00,
  0x01, 0x00, 0x00, 0x00, 0x00, 0x00, 0x00, 0x00, 0x00, 0x00, 0x00, 0x00,
  0x01, 0x00, 0x00, 0x00, 0xab, 0xca, 0xdc, 0x3b, 0x2c, 0x00, 0x00, 0x00,
  0x73, 0x65, 0x71, 0x75, 0x65, 0x6e, 0x74, 0x69, 0x61, 0x6c, 0x5f, 0x36,
  0x2f, 0x64, 0x65, 0x6e, 0x73, 0x65, 0x5f, 0x33, 0x33, 0x2f, 0x42, 0x69,
  0x61, 0x73, 0x41, 0x64, 0x64, 0x2f, 0x52, 0x65, 0x61, 0x64, 0x56, 0x61,
  0x72, 0x69, 0x61, 0x62, 0x6c, 0x65, 0x4f, 0x70, 0x00, 0x00, 0x00, 0x00,
  0x01, 0x00, 0x00, 0x00, 0x10, 0x00, 0x00, 0x00, 0x8e, 0xff, 0xff, 0xff,
  0x00, 0x00, 0x00, 0x01, 0x14, 0x00, 0x00, 0x00, 0x34, 0x00, 0x00, 0x00,
  0x03, 0x00, 0x00, 0x00, 0x00, 0x00, 0x00, 0x09, 0x4c, 0x00, 0x00, 0x00,
  0xd4, 0xfe, 0xff, 0xff, 0x08, 0x00, 0x00, 0x00, 0x14, 0x00, 0x00, 0x00,
  0x01, 0x00, 0x00, 0x00, 0x00, 0x00, 0x00, 0x00, 0x00, 0x00, 0x00, 0x00,
  0x00, 0x00, 0x00, 0x00, 0x01, 0x00, 0x00, 0x00, 0xf4, 0x5e, 0x1e, 0x3c,
  0x1c, 0x00, 0x00, 0x00, 0x73, 0x65, 0x71, 0x75, 0x65, 0x6e, 0x74, 0x69,
  0x61, 0x6c, 0x5f, 0x36, 0x2f, 0x64, 0x65, 0x6e, 0x73, 0x65, 0x5f, 0x33,
  0x34, 0x2f, 0x4d, 0x61, 0x74, 0x4d, 0x75, 0x6c, 0x00, 0x00, 0x00, 0x00,
  0x02, 0x00, 0x00, 0x00, 0x01, 0x00, 0x00, 0x00, 0x10, 0x00, 0x00, 0x00,
  0x00, 0x00, 0x16, 0x00, 0x1c, 0x00, 0x18, 0x00, 0x17, 0x00, 0x10, 0x00,
  0x0c, 0x00, 0x08, 0x00, 0x00, 0x00, 0x00, 0x00, 0x00, 0x00, 0x07, 0x00,
  0x16, 0x00, 0x00, 0x00, 0x00, 0x00, 0x00, 0x01, 0x14, 0x00, 0x00, 0x00,
  0x34, 0x00, 0x00, 0x00, 0x02, 0x00, 0x00, 0x00, 0x00, 0x00, 0x00, 0x02,
  0x5c, 0x00, 0x00, 0x00, 0x5c, 0xff, 0xff, 0xff, 0x08, 0x00, 0x00, 0x00,
  0x14, 0x00, 0x00, 0x00, 0x01, 0x00, 0x00, 0x00, 0x00, 0x00, 0x00, 0x00,
  0x00, 0x00, 0x00, 0x00, 0x00, 0x00, 0x00, 0x00, 0x01, 0x00, 0x00, 0x00,
  0xc3, 0x6c, 0xc3, 0x3b, 0x2c, 0x00, 0x00, 0x00, 0x73, 0x65, 0x71, 0x75,
  0x65, 0x6e, 0x74, 0x69, 0x61, 0x6c, 0x5f, 0x36, 0x2f, 0x64, 0x65, 0x6e,
  0x73, 0x65, 0x5f, 0x33, 0x34, 0x2f, 0x42, 0x69, 0x61, 0x73, 0x41, 0x64,
  0x64, 0x2f, 0x52, 0x65, 0x61, 0x64, 0x56, 0x61, 0x72, 0x69, 0x61, 0x62,
  0x6c, 0x65, 0x4f, 0x70, 0x00, 0x00, 0x00, 0x00, 0x01, 0x00, 0x00, 0x00,
  0x01, 0x00, 0x00, 0x00, 0x00, 0x00, 0x16, 0x00, 0x20, 0x00, 0x1c, 0x00,
  0x1b, 0x00, 0x14, 0x00, 0x10, 0x00, 0x0c, 0x00, 0x00, 0x00, 0x00, 0x00,
  0x08, 0x00, 0x07, 0x00, 0x16, 0x00, 0x00, 0x00, 0x00, 0x00, 0x00, 0x01,
  0x18, 0x00, 0x00, 0x00, 0x2c, 0x00, 0x00, 0x00, 0x4c, 0x00, 0x00, 0x00,
  0x01, 0x00, 0x00, 0x00, 0x00, 0x00, 0x00, 0x09, 0x68, 0x00, 0x00, 0x00,
  0x02, 0x00, 0x00, 0x00, 0xff, 0xff, 0xff, 0xff, 0x02, 0x00, 0x00, 0x00,
  0x0c, 0x00, 0x0c, 0x00, 0x00, 0x00, 0x00, 0x00, 0x08, 0x00, 0x04, 0x00,
  0x0c, 0x00, 0x00, 0x00, 0x08, 0x00, 0x00, 0x00, 0x14, 0x00, 0x00, 0x00,
  0x01, 0x00, 0x00, 0x00, 0x80, 0xff, 0xff, 0xff, 0xff, 0xff, 0xff, 0xff,
  0x00, 0x00, 0x00, 0x00, 0x01, 0x00, 0x00, 0x00, 0x48, 0xd9, 0x49, 0x3d,
  0x20, 0x00, 0x00, 0x00, 0x73, 0x65, 0x72, 0x76, 0x69, 0x6e, 0x67, 0x5f,
  0x64, 0x65, 0x66, 0x61, 0x75, 0x6c, 0x74, 0x5f, 0x64, 0x65, 0x6e, 0x73,
  0x65, 0x5f, 0x33, 0x30, 0x5f, 0x69, 0x6e, 0x70, 0x75, 0x74, 0x3a, 0x30,
  0x00, 0x00, 0x00, 0x00, 0x02, 0x00, 0x00, 0x00, 0x01, 0x00, 0x00, 0x00,
  0x02, 0x00, 0x00, 0x00, 0x02, 0x00, 0x00, 0x00, 0x24, 0x00, 0x00, 0x00,
  0x04, 0x00, 0x00, 0x00, 0xf0, 0xff, 0xff, 0xff, 0x0e, 0x00, 0x00, 0x00,
  0x02, 0x00, 0x00, 0x00, 0x00, 0x00, 0x00, 0x0e, 0x0c, 0x00, 0x10, 0x00,
  0x0f, 0x00, 0x00, 0x00, 0x08, 0x00, 0x04, 0x00, 0x0c, 0x00, 0x00, 0x00,
  0x09, 0x00, 0x00, 0x00, 0x04, 0x00, 0x00, 0x00, 0x00, 0x00, 0x00, 0x09
};
unsigned int g_model_len = 15576;
