# include "model.h"

unsigned char g_model[] = {
  0x1c, 0x00, 0x00, 0x00, 0x54, 0x46, 0x4c, 0x33, 0x14, 0x00, 0x20, 0x00,
  0x1c, 0x00, 0x18, 0x00, 0x14, 0x00, 0x10, 0x00, 0x0c, 0x00, 0x00, 0x00,
  0x08, 0x00, 0x04, 0x00, 0x14, 0x00, 0x00, 0x00, 0x1c, 0x00, 0x00, 0x00,
  0x90, 0x00, 0x00, 0x00, 0xe8, 0x00, 0x00, 0x00, 0x90, 0x0c, 0x00, 0x00,
  0xa0, 0x0c, 0x00, 0x00, 0x30, 0x13, 0x00, 0x00, 0x03, 0x00, 0x00, 0x00,
  0x01, 0x00, 0x00, 0x00, 0x10, 0x00, 0x00, 0x00, 0x00, 0x00, 0x0a, 0x00,
  0x10, 0x00, 0x0c, 0x00, 0x08, 0x00, 0x04, 0x00, 0x0a, 0x00, 0x00, 0x00,
  0x0c, 0x00, 0x00, 0x00, 0x1c, 0x00, 0x00, 0x00, 0x3c, 0x00, 0x00, 0x00,
  0x0f, 0x00, 0x00, 0x00, 0x73, 0x65, 0x72, 0x76, 0x69, 0x6e, 0x67, 0x5f,
  0x64, 0x65, 0x66, 0x61, 0x75, 0x6c, 0x74, 0x00, 0x01, 0x00, 0x00, 0x00,
  0x04, 0x00, 0x00, 0x00, 0x98, 0xff, 0xff, 0xff, 0x09, 0x00, 0x00, 0x00,
  0x04, 0x00, 0x00, 0x00, 0x08, 0x00, 0x00, 0x00, 0x64, 0x65, 0x6e, 0x73,
  0x65, 0x5f, 0x34, 0x38, 0x00, 0x00, 0x00, 0x00, 0x01, 0x00, 0x00, 0x00,
  0x04, 0x00, 0x00, 0x00, 0x0e, 0xf4, 0xff, 0xff, 0x04, 0x00, 0x00, 0x00,
  0x07, 0x00, 0x00, 0x00, 0x69, 0x6e, 0x70, 0x75, 0x74, 0x5f, 0x33, 0x00,
  0x02, 0x00, 0x00, 0x00, 0x34, 0x00, 0x00, 0x00, 0x04, 0x00, 0x00, 0x00,
  0xdc, 0xff, 0xff, 0xff, 0x0c, 0x00, 0x00, 0x00, 0x04, 0x00, 0x00, 0x00,
  0x13, 0x00, 0x00, 0x00, 0x43, 0x4f, 0x4e, 0x56, 0x45, 0x52, 0x53, 0x49,
  0x4f, 0x4e, 0x5f, 0x4d, 0x45, 0x54, 0x41, 0x44, 0x41, 0x54, 0x41, 0x00,
  0x08, 0x00, 0x0c, 0x00, 0x08, 0x00, 0x04, 0x00, 0x08, 0x00, 0x00, 0x00,
  0x0b, 0x00, 0x00, 0x00, 0x04, 0x00, 0x00, 0x00, 0x13, 0x00, 0x00, 0x00,
  0x6d, 0x69, 0x6e, 0x5f, 0x72, 0x75, 0x6e, 0x74, 0x69, 0x6d, 0x65, 0x5f,
  0x76, 0x65, 0x72, 0x73, 0x69, 0x6f, 0x6e, 0x00, 0x0d, 0x00, 0x00, 0x00,
  0xa4, 0x0b, 0x00, 0x00, 0x9c, 0x0b, 0x00, 0x00, 0x7c, 0x0b, 0x00, 0x00,
  0xe4, 0x0a, 0x00, 0x00, 0x54, 0x0a, 0x00, 0x00, 0x44, 0x02, 0x00, 0x00,
  0x34, 0x01, 0x00, 0x00, 0xa4, 0x00, 0x00, 0x00, 0x9c, 0x00, 0x00, 0x00,
  0x94, 0x00, 0x00, 0x00, 0x8c, 0x00, 0x00, 0x00, 0x6c, 0x00, 0x00, 0x00,
  0x04, 0x00, 0x00, 0x00, 0xb6, 0xf4, 0xff, 0xff, 0x04, 0x00, 0x00, 0x00,
  0x58, 0x00, 0x00, 0x00, 0x0c, 0x00, 0x00, 0x00, 0x08, 0x00, 0x0e, 0x00,
  0x08, 0x00, 0x04, 0x00, 0x08, 0x00, 0x00, 0x00, 0x10, 0x00, 0x00, 0x00,
  0x28, 0x00, 0x00, 0x00, 0x00, 0x00, 0x06, 0x00, 0x08, 0x00, 0x04, 0x00,
  0x06, 0x00, 0x00, 0x00, 0x04, 0x00, 0x00, 0x00, 0x01, 0x00, 0x00, 0x00,
  0xeb, 0x03, 0x00, 0x00, 0x00, 0x00, 0x0a, 0x00, 0x10, 0x00, 0x0c, 0x00,
  0x08, 0x00, 0x04, 0x00, 0x0a, 0x00, 0x00, 0x00, 0x01, 0x00, 0x00, 0x00,
  0x02, 0x00, 0x00, 0x00, 0x04, 0x00, 0x00, 0x00, 0x06, 0x00, 0x00, 0x00,
  0x32, 0x2e, 0x31, 0x32, 0x2e, 0x30, 0x00, 0x00, 0x1a, 0xf5, 0xff, 0xff,
  0x04, 0x00, 0x00, 0x00, 0x10, 0x00, 0x00, 0x00, 0x31, 0x2e, 0x31, 0x34,
  0x2e, 0x30, 0x00, 0x00, 0x00, 0x00, 0x00, 0x00, 0x00, 0x00, 0x00, 0x00,
  0x98, 0xf4, 0xff, 0xff, 0x9c, 0xf4, 0xff, 0xff, 0xa0, 0xf4, 0xff, 0xff,
  0x42, 0xf5, 0xff, 0xff, 0x04, 0x00, 0x00, 0x00, 0x80, 0x00, 0x00, 0x00,
  0xab, 0x00, 0xf5, 0xfb, 0x05, 0xf1, 0xfd, 0xfe, 0xf2, 0x00, 0xf5, 0xfe,
  0xd2, 0x00, 0xf7, 0xfe, 0xfd, 0xf5, 0xb0, 0x00, 0x81, 0x01, 0xf1, 0xf2,
  0x02, 0xf7, 0x07, 0x00, 0xff, 0xf6, 0xf9, 0xfe, 0x02, 0xfb, 0xf9, 0xf3,
  0x06, 0xea, 0x0f, 0xfe, 0xfa, 0xf6, 0x03, 0xf7, 0x0a, 0xf8, 0xf6, 0xfb,
  0xf8, 0xf9, 0x04, 0xf4, 0xfe, 0xfd, 0x1a, 0x00, 0x1c, 0x00, 0xfe, 0xfa,
  0x08, 0xee, 0xf5, 0xf6, 0xf8, 0xf6, 0xe3, 0xfa, 0x15, 0xff, 0x11, 0x00,
  0xf4, 0x04, 0xf6, 0xfc, 0xf4, 0xf7, 0x00, 0xf4, 0x00, 0xff, 0x1d, 0x00,
  0x00, 0xfa, 0x20, 0x00, 0xf9, 0x01, 0x00, 0xff, 0xd2, 0xfc, 0x02, 0xf7,
  0xf1, 0x03, 0xdf, 0x04, 0x04, 0xfb, 0x02, 0xf4, 0xe0, 0xfa, 0x1e, 0x00,
  0x15, 0x01, 0xff, 0xf9, 0x11, 0x04, 0x03, 0xf3, 0xf8, 0xf8, 0xba, 0x00,
  0x00, 0xfb, 0x1e, 0x00, 0x16, 0x05, 0xfb, 0xfc, 0xce, 0xf5, 0xff, 0xff,
  0x04, 0x00, 0x00, 0x00, 0x00, 0x01, 0x00, 0x00, 0xe6, 0x03, 0x00, 0x00,
  0x00, 0x00, 0x00, 0x00, 0x47, 0xff, 0xff, 0xff, 0x00, 0x00, 0x00, 0x00,
  0xaa, 0xff, 0xff, 0xff, 0x00, 0x00, 0x00, 0x00, 0x65, 0x02, 0x00, 0x00,
  0xaf, 0x06, 0x00, 0x00, 0x00, 0x00, 0x00, 0x00, 0x0b, 0x04, 0x00, 0x00,
  0x57, 0x05, 0x00, 0x00, 0xc4, 0x02, 0x00, 0x00, 0x42, 0x02, 0x00, 0x00,
  0xb8, 0xfa, 0xff, 0xff, 0x00, 0x00, 0x00, 0x00, 0x00, 0x00, 0x00, 0x00,
  0x6d, 0xff, 0xff, 0xff, 0x5c, 0x02, 0x00, 0x00, 0xdb, 0xfe, 0xff, 0xff,
  0x93, 0xfb, 0xff, 0xff, 0xb4, 0x01, 0x00, 0x00, 0xa0, 0xff, 0xff, 0xff,
  0x78, 0x03, 0x00, 0x00, 0x00, 0x00, 0x00, 0x00, 0x00, 0x00, 0x00, 0x00,
  0x9c, 0xff, 0xff, 0xff, 0x67, 0x04, 0x00, 0x00, 0xc9, 0xfa, 0xff, 0xff,
  0x6d, 0xfa, 0xff, 0xff, 0x72, 0x03, 0x00, 0x00, 0xd8, 0xfe, 0xff, 0xff,
  0x00, 0x00, 0x00, 0x00, 0x00, 0x00, 0x00, 0x00, 0x2f, 0x05, 0x00, 0x00,
  0xac, 0xfc, 0xff, 0xff, 0x51, 0xfb, 0xff, 0xff, 0xcb, 0x06, 0x00, 0x00,
  0x00, 0x00, 0x00, 0x00, 0xf3, 0x01, 0x00, 0x00, 0x00, 0x00, 0x00, 0x00,
  0x9a, 0xff, 0xff, 0xff, 0x2f, 0xfa, 0xff, 0xff, 0xd1, 0xff, 0xff, 0xff,
  0xbf, 0xf9, 0xff, 0xff, 0xf1, 0xfe, 0xff, 0xff, 0xbf, 0xff, 0xff, 0xff,
  0x60, 0x02, 0x00, 0x00, 0xd1, 0xff, 0xff, 0xff, 0x2e, 0x08, 0x00, 0x00,
  0xb8, 0x04, 0x00, 0x00, 0xc3, 0xfe, 0xff, 0xff, 0xbe, 0xff, 0xff, 0xff,
  0x1b, 0x02, 0x00, 0x00, 0x22, 0xfa, 0xff, 0xff, 0x45, 0x01, 0x00, 0x00,
  0x00, 0x00, 0x00, 0x00, 0x50, 0xfa, 0xff, 0xff, 0xc1, 0xff, 0xff, 0xff,
  0x00, 0x00, 0x00, 0x00, 0x70, 0x03, 0x00, 0x00, 0x00, 0x00, 0x00, 0x00,
  0x38, 0xfa, 0xff, 0xff, 0x4f, 0xfc, 0xff, 0xff, 0xc4, 0x06, 0x00, 0x00,
  0xda, 0xf6, 0xff, 0xff, 0x04, 0x00, 0x00, 0x00, 0x00, 0x08, 0x00, 0x00,
  0x02, 0xf9, 0x07, 0xf8, 0xf5, 0x08, 0xfa, 0xfa, 0x04, 0xf3, 0xf7, 0x01,
  0x07, 0x07, 0x01, 0x06, 0x02, 0x07, 0x05, 0x01, 0xff, 0xfe, 0x07, 0x01,
  0xfc, 0x0b, 0x09, 0x39, 0x32, 0xfc, 0x15, 0x05, 0x03, 0xe0, 0x14, 0xe6,
  0x00, 0x06, 0x04, 0x00, 0xfb, 0x43, 0xff, 0x5a, 0x05, 0x03, 0xf7, 0xff,
  0xe5, 0xf1, 0x06, 0x09, 0x06, 0x34, 0x17, 0xf9, 0x0a, 0x05, 0x00, 0xf6,
  0x05, 0x48, 0x1d, 0x00, 0xc0, 0x06, 0xfe, 0x04, 0x00, 0xf8, 0xdc, 0x10,
  0xfa, 0xdc, 0x8b, 0x06, 0xf4, 0xfd, 0xfa, 0xfe, 0x03, 0x05, 0xfc, 0xfe,
  0x06, 0x01, 0x02, 0x08, 0x06, 0x08, 0x08, 0xd9, 0xeb, 0x01, 0xfa, 0xff,
  0xfd, 0x05, 0xfc, 0xf0, 0x0b, 0xfd, 0xf8, 0x02, 0xf9, 0xd7, 0x01, 0xcd,
  0x04, 0x05, 0xf5, 0xf6, 0x3f, 0xd0, 0xf9, 0xfd, 0x02, 0xe9, 0x04, 0xf9,
  0xde, 0xfc, 0x01, 0xed, 0x04, 0xd7, 0xfb, 0x18, 0x01, 0x00, 0x08, 0x00,
  0xfa, 0xfe, 0x03, 0x04, 0x07, 0x04, 0xfe, 0xff, 0xfc, 0xfb, 0x02, 0x05,
  0xfa, 0xfc, 0x08, 0x02, 0xff, 0xfa, 0xfe, 0x06, 0x05, 0xf9, 0x02, 0x01,
  0x02, 0xf9, 0x08, 0xfd, 0xf9, 0x01, 0x03, 0x08, 0xf9, 0x06, 0xfa, 0xfd,
  0x02, 0xf9, 0xf9, 0x00, 0x01, 0x06, 0xf8, 0x06, 0x08, 0xfa, 0xf8, 0x02,
  0xf9, 0xfd, 0xfa, 0x06, 0xfa, 0xfd, 0xff, 0x07, 0x04, 0xf9, 0x07, 0xf9,
  0x4a, 0x01, 0x06, 0x03, 0x01, 0xfb, 0x02, 0x01, 0x00, 0x32, 0x7f, 0x01,
  0xfb, 0xfb, 0x04, 0x04, 0x05, 0x05, 0x01, 0xea, 0x04, 0xfa, 0x02, 0x05,
  0xff, 0x05, 0x0a, 0xf1, 0xf5, 0x03, 0xfa, 0x00, 0x04, 0x08, 0xe6, 0xeb,
  0xf3, 0xf9, 0x01, 0x08, 0x01, 0xfc, 0x03, 0x05, 0x02, 0xfd, 0x09, 0x04,
  0x0f, 0x17, 0xf0, 0x02, 0x06, 0xec, 0xe9, 0x06, 0xf7, 0x05, 0x05, 0x0d,
  0xf9, 0xf3, 0xe7, 0x03, 0x01, 0x02, 0xf6, 0x00, 0x05, 0xf8, 0xfb, 0xfe,
  0x05, 0xf3, 0xf8, 0x07, 0xff, 0x09, 0x03, 0x02, 0x02, 0x03, 0xfe, 0xda,
  0x01, 0xfc, 0xfb, 0x01, 0x03, 0xfb, 0x02, 0x12, 0x0a, 0xfc, 0x02, 0x07,
  0x08, 0xf6, 0x01, 0xb5, 0xf9, 0xf9, 0x03, 0x01, 0xfe, 0x17, 0x06, 0x2c,
  0x04, 0x06, 0xf5, 0x0a, 0xeb, 0xe2, 0x07, 0xfd, 0xf9, 0x0c, 0x0a, 0x03,
  0xe4, 0x05, 0xfd, 0xf7, 0x03, 0x1e, 0x0c, 0xfa, 0x04, 0x05, 0xff, 0xfe,
  0xf8, 0xfe, 0x01, 0xfd, 0x05, 0x02, 0xfb, 0xf6, 0x04, 0xfe, 0x05, 0x04,
  0x04, 0xf9, 0xf8, 0xff, 0xfa, 0x04, 0xfa, 0x03, 0xfe, 0x06, 0x05, 0xf6,
  0x03, 0xff, 0xf7, 0x04, 0x07, 0x03, 0x01, 0xfc, 0xfc, 0x02, 0xfb, 0x07,
  0x03, 0x02, 0x04, 0xf9, 0x03, 0x03, 0x03, 0x04, 0x04, 0xfc, 0xfe, 0xf7,
  0xf8, 0xfa, 0x04, 0x03, 0xf7, 0xfa, 0xff, 0xf6, 0x00, 0xf8, 0xf7, 0xfb,
  0xcd, 0x01, 0xfc, 0xfe, 0xfd, 0xfe, 0x00, 0x06, 0xf8, 0xe2, 0x90, 0x00,
  0xfd, 0xfc, 0xf8, 0x03, 0x00, 0x03, 0xf6, 0x02, 0x00, 0xfc, 0x04, 0xff,
  0xfe, 0xfa, 0x0b, 0x9c, 0xb7, 0x02, 0xed, 0x07, 0x04, 0x04, 0xf5, 0x02,
  0x0b, 0x07, 0x07, 0x00, 0x02, 0x9a, 0xfd, 0x86, 0x01, 0x05, 0x06, 0x02,
  0x06, 0xff, 0xfd, 0x03, 0x02, 0xba, 0xfe, 0x00, 0xe2, 0x04, 0x00, 0xf3,
  0xf9, 0x9a, 0x00, 0x06, 0x2c, 0x05, 0x09, 0xff, 0xfe, 0x01, 0x05, 0x07,
  0x07, 0x20, 0x54, 0x05, 0x00, 0xfa, 0x00, 0xfb, 0x05, 0x00, 0x04, 0xfc,
  0x0a, 0xff, 0x16, 0x06, 0x04, 0x05, 0x06, 0xea, 0xfd, 0xfc, 0x0a, 0x01,
  0x04, 0x0c, 0xf0, 0xf8, 0xfa, 0x07, 0x07, 0x03, 0xf9, 0xfc, 0x05, 0xfd,
  0xf7, 0x05, 0x07, 0x05, 0xfe, 0x09, 0x07, 0xfe, 0x04, 0xf5, 0xec, 0x02,
  0xf8, 0xfe, 0xf9, 0x13, 0x01, 0xf6, 0xec, 0x08, 0x03, 0x08, 0x03, 0xf9,
  0xfd, 0x00, 0x00, 0xfc, 0xf8, 0xf9, 0x06, 0x02, 0xfa, 0xf7, 0xf9, 0x05,
  0x03, 0x00, 0xff, 0xf7, 0x06, 0x04, 0xf7, 0x00, 0xf8, 0x06, 0x03, 0x02,
  0xfb, 0xfb, 0x03, 0xf9, 0x00, 0xf6, 0xfe, 0x06, 0xfc, 0xfe, 0xf7, 0x01,
  0xf9, 0x03, 0x02, 0xf8, 0xfe, 0xfc, 0x01, 0x02, 0xfe, 0xfa, 0x04, 0xf6,
  0x03, 0x02, 0x04, 0x06, 0xfa, 0xf9, 0x08, 0xff, 0x06, 0xfb, 0x06, 0x00,
  0xf7, 0x01, 0x1b, 0x02, 0xfa, 0x07, 0xf8, 0xf6, 0xfa, 0xfa, 0xfb, 0xff,
  0x01, 0xff, 0xfc, 0xfb, 0x01, 0xff, 0x15, 0xfe, 0x07, 0xfe, 0x03, 0x03,
  0xff, 0x0b, 0xff, 0x20, 0x1f, 0xfe, 0x11, 0x01, 0xfd, 0xdf, 0x0f, 0xfd,
  0xf1, 0x04, 0xf7, 0xfc, 0x07, 0x26, 0xfb, 0x31, 0x04, 0x03, 0xfa, 0xfa,
  0xe6, 0xe3, 0x08, 0x00, 0xfa, 0x22, 0x05, 0x04, 0x0e, 0x05, 0xff, 0x03,
  0xf9, 0x25, 0x10, 0xfd, 0xff, 0x02, 0x0c, 0xf8, 0xff, 0x00, 0x04, 0xbb,
  0x08, 0xfb, 0xfc, 0xf7, 0x02, 0x15, 0x05, 0xfe, 0x0a, 0x03, 0x04, 0x07,
  0xfa, 0x10, 0xf9, 0x03, 0x07, 0x0b, 0xf5, 0x1a, 0x13, 0xfb, 0x04, 0x01,
  0x04, 0xf3, 0xff, 0x07, 0xdc, 0x05, 0xfa, 0x04, 0x00, 0x19, 0xfb, 0x22,
  0xfd, 0x02, 0xfc, 0x05, 0x8a, 0xfa, 0x02, 0x00, 0x06, 0x0e, 0xfa, 0xfd,
  0x1c, 0x03, 0x03, 0x05, 0x05, 0x1a, 0x04, 0xca, 0x01, 0x03, 0x05, 0xf8,
  0x01, 0xfb, 0xf3, 0x01, 0x00, 0x00, 0xfa, 0xf5, 0xf9, 0xfc, 0x03, 0xfa,
  0xfb, 0xfd, 0xfc, 0xf8, 0xf4, 0xfd, 0xfd, 0x07, 0xfb, 0x01, 0xfb, 0xfb,
  0x00, 0xf6, 0x00, 0xfa, 0x07, 0x01, 0xf7, 0xf9, 0xf5, 0xfa, 0xfa, 0xfc,
  0xfe, 0x06, 0x06, 0x04, 0x04, 0xfd, 0x00, 0xff, 0xf9, 0xf9, 0x03, 0x03,
  0xfc, 0xff, 0x01, 0xfe, 0xfd, 0x05, 0x03, 0xf8, 0xfd, 0xff, 0xf6, 0xfe,
  0xf9, 0xf8, 0xff, 0xfd, 0x03, 0xfa, 0xf8, 0xfe, 0xfc, 0x00, 0xfb, 0xfa,
  0x01, 0x01, 0xff, 0x03, 0xfc, 0x01, 0xf7, 0x06, 0xfc, 0xf9, 0xf4, 0x04,
  0xfc, 0xfa, 0xfd, 0x00, 0xfe, 0xfc, 0x00, 0xf8, 0xf9, 0xfe, 0x02, 0x07,
  0xf6, 0x00, 0x01, 0xfa, 0xff, 0xff, 0x05, 0x03, 0x04, 0x03, 0x06, 0xfe,
  0x03, 0xfa, 0xf7, 0xfc, 0x05, 0x05, 0xfa, 0x04, 0xfa, 0x00, 0xf9, 0xfa,
  0xfb, 0x01, 0xfb, 0x04, 0x04, 0xf8, 0xfb, 0xfa, 0x00, 0x06, 0x00, 0xf7,
  0xfd, 0xf8, 0xfd, 0x05, 0x03, 0xfa, 0xfc, 0xfd, 0x03, 0xf7, 0xff, 0x01,
  0xf9, 0x05, 0x05, 0x06, 0x04, 0xfa, 0x00, 0xfe, 0xf5, 0xfa, 0x04, 0x08,
  0xf9, 0xf9, 0xfe, 0xfe, 0xfe, 0xf8, 0x00, 0x04, 0xfb, 0xf7, 0x07, 0xfe,
  0xf7, 0xfd, 0x00, 0x03, 0xf6, 0x00, 0xff, 0xf9, 0xff, 0xfa, 0x05, 0xf9,
  0x03, 0x00, 0x08, 0x00, 0x07, 0xff, 0x05, 0x05, 0x38, 0xfc, 0x01, 0xfc,
  0xfa, 0xfd, 0x08, 0x08, 0xff, 0x2a, 0x5c, 0x00, 0xfd, 0xfe, 0x06, 0xf9,
  0x06, 0xfe, 0xff, 0xfe, 0x0a, 0xfa, 0x0b, 0x06, 0x07, 0xfd, 0x02, 0x04,
  0xf8, 0x05, 0xf6, 0x02, 0xf8, 0x0c, 0xec, 0x03, 0xf4, 0x07, 0x03, 0xfa,
  0xff, 0x08, 0xfe, 0x05, 0x05, 0x00, 0x00, 0xfb, 0x02, 0x05, 0xf9, 0xfc,
  0x06, 0xf7, 0xf6, 0x07, 0xf9, 0xfc, 0x08, 0x16, 0xfe, 0xf9, 0xe5, 0x0b,
  0xfe, 0x05, 0xfb, 0x03, 0x02, 0x01, 0xfd, 0xfc, 0x07, 0x04, 0x01, 0xf6,
  0xfd, 0xf6, 0xfa, 0x04, 0xfc, 0xff, 0xfb, 0xf7, 0xfc, 0xfb, 0xfc, 0x07,
  0xfd, 0xfc, 0x02, 0xfd, 0xfb, 0xff, 0xfb, 0xf9, 0xf8, 0x00, 0xfe, 0x05,
  0xf8, 0x05, 0xfe, 0xf9, 0xfa, 0x03, 0x04, 0xfa, 0xfe, 0xfd, 0x05, 0xfe,
  0xfa, 0xfd, 0xf6, 0x05, 0xfa, 0x03, 0x06, 0x07, 0xff, 0xff, 0xfb, 0xfe,
  0x01, 0xf7, 0x01, 0x00, 0xf8, 0x04, 0xff, 0x01, 0xfe, 0xfb, 0xf4, 0x02,
  0xff, 0x02, 0xfc, 0x04, 0x07, 0xff, 0xfb, 0x02, 0xfd, 0xf7, 0x01, 0x02,
  0x04, 0x01, 0xf2, 0xf9, 0x03, 0xfc, 0x02, 0x01, 0xfc, 0xfd, 0x00, 0xfd,
  0xfd, 0xe6, 0x09, 0xf0, 0xff, 0x01, 0xfd, 0xff, 0xf9, 0x04, 0xfc, 0x1a,
  0x01, 0xfb, 0xfc, 0x07, 0xe5, 0xe9, 0xfc, 0xfc, 0xff, 0xf8, 0x00, 0xff,
  0xe0, 0xfe, 0xfc, 0xfc, 0x06, 0x08, 0xff, 0x01, 0x05, 0xfc, 0xfb, 0xf9,
  0xf9, 0x03, 0xfc, 0xff, 0x02, 0xf7, 0xfe, 0xff, 0xfc, 0x01, 0x02, 0x03,
  0x02, 0xfc, 0x01, 0xfe, 0x01, 0x05, 0x01, 0x05, 0x08, 0xfe, 0xfb, 0xfb,
  0xf7, 0xfe, 0x06, 0x06, 0x04, 0xff, 0xfd, 0xf9, 0xfd, 0xfc, 0x02, 0xfe,
  0xf8, 0x02, 0xfb, 0x07, 0xfe, 0xf6, 0x05, 0xff, 0x01, 0xfa, 0x06, 0x06,
  0x01, 0x00, 0xfb, 0xf8, 0xf8, 0x04, 0x02, 0x05, 0xfc, 0x05, 0xf7, 0x04,
  0x07, 0xfa, 0xff, 0xff, 0x00, 0x05, 0xfe, 0x00, 0x01, 0xfb, 0xf9, 0x06,
  0xfe, 0xf7, 0xfa, 0x02, 0xfe, 0x06, 0x00, 0xfc, 0xfa, 0x01, 0xf5, 0x06,
  0x05, 0xfc, 0xf8, 0xf6, 0xfb, 0xfe, 0xfa, 0x07, 0xfd, 0xfa, 0xfd, 0xff,
  0x04, 0xff, 0xfc, 0xf9, 0x00, 0xfd, 0xfd, 0xfd, 0x05, 0x04, 0x04, 0xfe,
  0xf6, 0xfa, 0xfe, 0xfa, 0xfa, 0x03, 0x01, 0x04, 0xf9, 0x00, 0xff, 0xfc,
  0xfb, 0xf9, 0x01, 0x07, 0xd4, 0x08, 0xfb, 0xf9, 0x02, 0x04, 0xfd, 0x27,
  0x07, 0xe5, 0xa2, 0x0a, 0xff, 0xec, 0x01, 0xfd, 0x03, 0x05, 0xfb, 0xf4,
  0x07, 0x01, 0x05, 0xff, 0x02, 0xfb, 0x0d, 0xd2, 0xe3, 0x0a, 0xf5, 0x01,
  0x04, 0x1d, 0xf6, 0xea, 0x25, 0xf9, 0x0c, 0xfc, 0xff, 0xc4, 0xf9, 0xaa,
  0x00, 0xff, 0xfa, 0xfd, 0x56, 0x04, 0xfd, 0x01, 0x03, 0xdc, 0x08, 0xff,
  0xd4, 0x04, 0x02, 0xf0, 0x07, 0xc8, 0xf5, 0x1d, 0xff, 0x06, 0x02, 0x04,
  0x02, 0xfd, 0xf7, 0xfc, 0x05, 0x05, 0x00, 0x01, 0x03, 0x00, 0xff, 0xf9,
  0x01, 0xfb, 0xfe, 0x03, 0xf9, 0x0b, 0xff, 0xfb, 0xff, 0xff, 0xf9, 0xf9,
  0x05, 0xfa, 0xff, 0x04, 0xfd, 0xf5, 0xfc, 0x06, 0xfb, 0xfb, 0x01, 0xfd,
  0x01, 0x04, 0x01, 0x00, 0x01, 0xfe, 0x06, 0x09, 0x03, 0xfc, 0x05, 0xfc,
  0xff, 0x05, 0xfd, 0xf9, 0x01, 0x02, 0xfc, 0x00, 0xfb, 0x00, 0xfa, 0xf8,
  0xfc, 0xfc, 0x01, 0x00, 0xfa, 0xfb, 0x00, 0xf9, 0xf9, 0xfb, 0x00, 0x01,
  0x03, 0xf6, 0x02, 0xfc, 0x08, 0x02, 0x07, 0x01, 0x02, 0xfc, 0xff, 0x05,
  0x07, 0xf9, 0xf7, 0xff, 0x02, 0xf7, 0x00, 0x00, 0xfa, 0xfd, 0xfd, 0xf6,
  0x02, 0x06, 0xfe, 0xfc, 0xf3, 0xf9, 0xfd, 0x03, 0xf9, 0xf6, 0xfa, 0xfd,
  0xfd, 0x03, 0x06, 0x00, 0xfd, 0xf9, 0xf8, 0x08, 0xff, 0xff, 0x01, 0xf9,
  0x01, 0x05, 0x01, 0xf4, 0xf8, 0xf8, 0x02, 0xfd, 0xfc, 0xfd, 0xf7, 0xf6,
  0xfc, 0xf7, 0xf7, 0xfc, 0xff, 0x00, 0xfc, 0x06, 0xff, 0xf7, 0xfc, 0xfc,
  0xfb, 0x03, 0x01, 0xfd, 0x07, 0x03, 0x01, 0x0d, 0x0f, 0xf7, 0xfb, 0x03,
  0x01, 0xd7, 0x0d, 0xf3, 0x03, 0xfc, 0x07, 0x01, 0xfc, 0x1f, 0xfb, 0x23,
  0x02, 0x06, 0xfe, 0xfb, 0xed, 0xe8, 0xfe, 0x06, 0xfa, 0x19, 0x11, 0xfa,
  0xf1, 0xfb, 0xf8, 0x02, 0x03, 0x1c, 0x0d, 0x00, 0xff, 0xfc, 0x04, 0xfa,
  0xfb, 0x05, 0xf9, 0x03, 0xfe, 0xfe, 0xf4, 0xfb, 0xfc, 0xf5, 0x06, 0x05,
  0x08, 0xfe, 0xfa, 0xf7, 0x03, 0x04, 0x04, 0xfd, 0xfe, 0x02, 0x00, 0xf8,
  0xfe, 0xfc, 0xf8, 0x03, 0xfa, 0x02, 0xf9, 0x01, 0xfd, 0xfd, 0xf6, 0x05,
  0x00, 0x06, 0x00, 0x05, 0xf6, 0x00, 0x00, 0x00, 0xfa, 0xff, 0xf9, 0xfb,
  0xf7, 0xfa, 0x03, 0x01, 0xfe, 0x02, 0x03, 0xfc, 0x00, 0xfa, 0xf9, 0xf6,
  0xfc, 0x05, 0xf9, 0x01, 0xfc, 0x00, 0xff, 0xfd, 0x00, 0xfd, 0xfe, 0xfa,
  0x02, 0xfe, 0xf9, 0xf9, 0xfe, 0xfc, 0x07, 0xf8, 0x02, 0xfc, 0xf8, 0x06,
  0xfb, 0x03, 0xff, 0xfd, 0xfd, 0xfa, 0x01, 0xfc, 0xfb, 0xff, 0xfb, 0xf9,
  0xfa, 0x00, 0x06, 0xfe, 0xfb, 0x03, 0xf8, 0x01, 0x02, 0xfe, 0x03, 0x05,
  0x05, 0xfc, 0xfc, 0xf8, 0x05, 0xfc, 0xf9, 0x06, 0xff, 0x05, 0xfe, 0xfc,
  0xfe, 0xfe, 0x03, 0xf8, 0x08, 0xfb, 0xf8, 0x07, 0xfa, 0x00, 0x02, 0xff,
  0xfd, 0xf8, 0xf9, 0xf8, 0xff, 0x05, 0xff, 0x07, 0x02, 0x01, 0xf9, 0xfc,
  0x03, 0x03, 0xfb, 0x05, 0xff, 0xf9, 0x02, 0x01, 0xfb, 0xfd, 0xfe, 0x01,
  0x06, 0xf4, 0x00, 0xfa, 0xfe, 0x01, 0xfb, 0x03, 0xfd, 0x04, 0xff, 0xff,
  0x05, 0x01, 0xfa, 0x07, 0xfb, 0xfc, 0x05, 0x04, 0x03, 0xfe, 0xf6, 0x07,
  0xfb, 0x05, 0x02, 0xfb, 0x00, 0x04, 0xf9, 0xfd, 0xcb, 0x08, 0xf9, 0xfd,
  0xf9, 0x01, 0xff, 0x0c, 0x08, 0xda, 0x81, 0x15, 0x0e, 0xf3, 0xfe, 0xfb,
  0x01, 0x0d, 0xfa, 0x00, 0x0a, 0x0a, 0x10, 0x03, 0x03, 0xfd, 0x0f, 0xf7,
  0x05, 0x13, 0x0a, 0xfd, 0xfb, 0x01, 0x04, 0xff, 0x19, 0xf9, 0x04, 0xfb,
  0xfc, 0xe0, 0xfc, 0xda, 0xfb, 0xff, 0xfc, 0xfb, 0x20, 0xfd, 0x01, 0xfc,
  0x05, 0xfd, 0x11, 0x04, 0xee, 0x02, 0xf9, 0xf8, 0x06, 0xf7, 0x07, 0x10,
  0x03, 0x05, 0xfb, 0xff, 0x03, 0xff, 0xf2, 0xf8, 0x08, 0xfb, 0xf4, 0xf9,
  0x05, 0x01, 0xfe, 0x07, 0xfe, 0x04, 0xfe, 0x04, 0x05, 0xfa, 0x08, 0xfd,
  0xfe, 0x01, 0x05, 0x2e, 0x22, 0x06, 0x0c, 0xfd, 0xfc, 0xd5, 0x0f, 0x02,
  0x0c, 0xfe, 0xfa, 0x06, 0x05, 0x3b, 0x02, 0x4c, 0x03, 0xfc, 0xf8, 0xfc,
  0xe5, 0xeb, 0x09, 0x02, 0x05, 0x27, 0x15, 0x03, 0xfe, 0xfd, 0x05, 0x03,
  0x01, 0x33, 0x15, 0xfd, 0x2e, 0xfe, 0xf9, 0xfe, 0xfc, 0x02, 0x06, 0xfe,
  0x01, 0x22, 0x72, 0x01, 0xfc, 0xf6, 0x06, 0x08, 0xfc, 0x07, 0xf8, 0xf1,
  0x04, 0xfc, 0x09, 0x00, 0xff, 0xf9, 0xfe, 0xee, 0xfd, 0xfd, 0xf9, 0x00,
  0x04, 0x13, 0xdf, 0xec, 0xf8, 0x03, 0x06, 0xff, 0xff, 0x04, 0xf9, 0xf5,
  0x02, 0x01, 0x03, 0x08, 0x06, 0x0f, 0xfc, 0xf9, 0x01, 0xfb, 0xe5, 0xf9,
  0xfe, 0x04, 0x08, 0x0d, 0xfd, 0xf4, 0xdf, 0x04, 0xff, 0xfb, 0xff, 0xfb,
  0x07, 0x08, 0x02, 0xf8, 0xfd, 0x02, 0x08, 0xf8, 0xfa, 0xfb, 0xf9, 0xf8,
  0x04, 0xf9, 0xfa, 0xf3, 0xf8, 0xfb, 0x07, 0x02, 0x03, 0x03, 0xed, 0xf4,
  0xf0, 0xed, 0x02, 0xfa, 0x00, 0xf9, 0xf4, 0xf1, 0x01, 0x06, 0xf8, 0xff,
  0x01, 0xf2, 0xff, 0xfb, 0x00, 0xf6, 0xf8, 0xfb, 0x04, 0xf9, 0x02, 0xfb,
  0x01, 0xfd, 0xf4, 0x07, 0xfa, 0x08, 0xfc, 0x07, 0xfc, 0xfa, 0xf7, 0xf3,
  0xd1, 0x02, 0x00, 0xfb, 0xfc, 0x00, 0x07, 0x05, 0xff, 0xea, 0x97, 0xfa,
  0x05, 0xfa, 0xff, 0x07, 0xf8, 0x08, 0x02, 0xfe, 0xff, 0xf2, 0x0e, 0xfe,
  0x01, 0x00, 0x0b, 0xdf, 0xe9, 0x05, 0xfd, 0x07, 0xfd, 0xfa, 0xf6, 0xf6,
  0x11, 0xfd, 0x01, 0x05, 0xfe, 0xdc, 0xfb, 0xcb, 0x07, 0x04, 0xfb, 0xff,
  0x0c, 0xf7, 0xfc, 0x01, 0xfb, 0xe5, 0x07, 0x01, 0xf1, 0xf6, 0x06, 0xfb,
  0x06, 0xd4, 0x02, 0x09, 0x00, 0xf8, 0xf6, 0x02, 0xfe, 0xfd, 0xf8, 0xfc,
  0x07, 0xfd, 0x08, 0xfe, 0xf7, 0xf8, 0x01, 0x07, 0xff, 0x01, 0xff, 0xfc,
  0xfb, 0xfa, 0xf7, 0x00, 0xf9, 0xfe, 0xfe, 0xfe, 0xfc, 0xfb, 0xfb, 0xf8,
  0x05, 0x04, 0xf9, 0x00, 0xf8, 0xfd, 0x03, 0x00, 0xfc, 0xfb, 0x07, 0xf6,
  0x00, 0x00, 0x0b, 0x01, 0x06, 0x01, 0x03, 0x05, 0xf7, 0x00, 0x03, 0x06,
  0xf8, 0xfe, 0xf9, 0x00, 0x02, 0xfc, 0xff, 0xf8, 0xe6, 0xfe, 0xff, 0xff,
  0x04, 0x00, 0x00, 0x00, 0x80, 0x00, 0x00, 0x00, 0x1d, 0xfd, 0xff, 0xff,
  0xb2, 0x09, 0x00, 0x00, 0x00, 0x00, 0x00, 0x00, 0xef, 0xfe, 0xff, 0xff,
  0xdb, 0xfc, 0xff, 0xff, 0x87, 0xff, 0xff, 0xff, 0xf5, 0x03, 0x00, 0x00,
  0xde, 0xfe, 0xff, 0xff, 0x8c, 0xff, 0xff, 0xff, 0x93, 0xf8, 0xff, 0xff,
  0xf6, 0xeb, 0xff, 0xff, 0xa8, 0xfe, 0xff, 0xff, 0x59, 0xff, 0xff, 0xff,
  0x5d, 0xff, 0xff, 0xff, 0x94, 0xfe, 0xff, 0xff, 0x70, 0xff, 0xff, 0xff,
  0xdc, 0xfb, 0xff, 0xff, 0x82, 0xff, 0xff, 0xff, 0x5d, 0xff, 0xff, 0xff,
  0x81, 0x0e, 0x00, 0x00, 0xc5, 0xff, 0xff, 0xff, 0x82, 0xff, 0xff, 0xff,
  0x04, 0x00, 0x00, 0x00, 0x38, 0xff, 0xff, 0xff, 0xa8, 0xff, 0xff, 0xff,
  0x1b, 0xff, 0xff, 0xff, 0x82, 0x0f, 0x00, 0x00, 0x07, 0xff, 0xff, 0xff,
  0x0f, 0xfe, 0xff, 0xff, 0x6d, 0xfd, 0xff, 0xff, 0x49, 0x05, 0x00, 0x00,
  0x44, 0xff, 0xff, 0xff, 0x72, 0xff, 0xff, 0xff, 0x04, 0x00, 0x00, 0x00,
  0x80, 0x00, 0x00, 0x00, 0x9d, 0x11, 0xfe, 0xe1, 0xcf, 0x09, 0x38, 0xf5,
  0x06, 0xef, 0x04, 0xfa, 0x00, 0x00, 0xee, 0x00, 0xe5, 0xfd, 0x05, 0x11,
  0x00, 0x06, 0xc7, 0xfe, 0xfe, 0xfb, 0x11, 0xb1, 0xea, 0xf6, 0x16, 0x02,
  0xec, 0x11, 0x02, 0x32, 0xcf, 0x04, 0xd3, 0x12, 0xfc, 0xa9, 0x00, 0x04,
  0xf6, 0xfa, 0x16, 0xfe, 0xfa, 0xf8, 0x0a, 0x13, 0xfc, 0xfe, 0xf2, 0xfb,
  0xf6, 0xfc, 0x04, 0xf1, 0x18, 0xf6, 0xff, 0x05, 0x0b, 0xf8, 0xff, 0x05,
  0xff, 0xfd, 0xf7, 0xf9, 0xfc, 0x10, 0x6a, 0x0b, 0xff, 0x07, 0xfa, 0xfd,
  0x0a, 0xfe, 0x04, 0x07, 0x02, 0xfc, 0x09, 0xf7, 0xfd, 0x0a, 0xe3, 0x0b,
  0xfa, 0x01, 0xbc, 0x01, 0x0d, 0x9c, 0x05, 0xf6, 0xff, 0xfe, 0xf1, 0x09,
  0xff, 0x0d, 0xa9, 0xf8, 0xf9, 0x05, 0x02, 0x00, 0x0a, 0xfe, 0x05, 0x81,
  0x09, 0xfb, 0x0b, 0x04, 0xff, 0xf8, 0x06, 0x0e, 0xf8, 0xff, 0x02, 0xfe,
  0x00, 0x00, 0x06, 0x00, 0x08, 0x00, 0x04, 0x00, 0x06, 0x00, 0x00, 0x00,
  0x04, 0x00, 0x00, 0x00, 0x10, 0x00, 0x00, 0x00, 0x12, 0x00, 0x00, 0x00,
  0x47, 0x00, 0x00, 0x00, 0xdd, 0xfe, 0xff, 0xff, 0xd9, 0x00, 0x00, 0x00,
  0x84, 0xff, 0xff, 0xff, 0x88, 0xff, 0xff, 0xff, 0x0f, 0x00, 0x00, 0x00,
  0x4d, 0x4c, 0x49, 0x52, 0x20, 0x43, 0x6f, 0x6e, 0x76, 0x65, 0x72, 0x74,
  0x65, 0x64, 0x2e, 0x00, 0x01, 0x00, 0x00, 0x00, 0x14, 0x00, 0x00, 0x00,
  0x00, 0x00, 0x0e, 0x00, 0x18, 0x00, 0x14, 0x00, 0x10, 0x00, 0x0c, 0x00,
  0x08, 0x00, 0x04, 0x00, 0x0e, 0x00, 0x00, 0x00, 0x14, 0x00, 0x00, 0x00,
  0x1c, 0x00, 0x00, 0x00, 0xdc, 0x00, 0x00, 0x00, 0xe0, 0x00, 0x00, 0x00,
  0xe4, 0x00, 0x00, 0x00, 0x04, 0x00, 0x00, 0x00, 0x6d, 0x61, 0x69, 0x6e,
  0x00, 0x00, 0x00, 0x00, 0x03, 0x00, 0x00, 0x00, 0x84, 0x00, 0x00, 0x00,
  0x3c, 0x00, 0x00, 0x00, 0x04, 0x00, 0x00, 0x00, 0x96, 0xff, 0xff, 0xff,
  0x14, 0x00, 0x00, 0x00, 0x00, 0x00, 0x00, 0x08, 0x10, 0x00, 0x00, 0x00,
  0x14, 0x00, 0x00, 0x00, 0x04, 0x00, 0x04, 0x00, 0x04, 0x00, 0x00, 0x00,
  0x01, 0x00, 0x00, 0x00, 0x09, 0x00, 0x00, 0x00, 0x03, 0x00, 0x00, 0x00,
  0x08, 0x00, 0x00, 0x00, 0x02, 0x00, 0x00, 0x00, 0x01, 0x00, 0x00, 0x00,
  0xca, 0xff, 0xff, 0xff, 0x10, 0x00, 0x00, 0x00, 0x00, 0x00, 0x00, 0x08,
  0x10, 0x00, 0x00, 0x00, 0x14, 0x00, 0x00, 0x00, 0xba, 0xff, 0xff, 0xff,
  0x00, 0x00, 0x00, 0x01, 0x01, 0x00, 0x00, 0x00, 0x08, 0x00, 0x00, 0x00,
  0x03, 0x00, 0x00, 0x00, 0x07, 0x00, 0x00, 0x00, 0x04, 0x00, 0x00, 0x00,
  0x03, 0x00, 0x00, 0x00, 0x00, 0x00, 0x0e, 0x00, 0x16, 0x00, 0x00, 0x00,
  0x10, 0x00, 0x0c, 0x00, 0x0b, 0x00, 0x04, 0x00, 0x0e, 0x00, 0x00, 0x00,
  0x18, 0x00, 0x00, 0x00, 0x00, 0x00, 0x00, 0x08, 0x18, 0x00, 0x00, 0x00,
  0x1c, 0x00, 0x00, 0x00, 0x00, 0x00, 0x06, 0x00, 0x08, 0x00, 0x07, 0x00,
  0x06, 0x00, 0x00, 0x00, 0x00, 0x00, 0x00, 0x01, 0x01, 0x00, 0x00, 0x00,
  0x07, 0x00, 0x00, 0x00, 0x03, 0x00, 0x00, 0x00, 0x00, 0x00, 0x00, 0x00,
  0x06, 0x00, 0x00, 0x00, 0x05, 0x00, 0x00, 0x00, 0x01, 0x00, 0x00, 0x00,
  0x09, 0x00, 0x00, 0x00, 0x01, 0x00, 0x00, 0x00, 0x00, 0x00, 0x00, 0x00,
  0x0a, 0x00, 0x00, 0x00, 0xfc, 0x04, 0x00, 0x00, 0x64, 0x04, 0x00, 0x00,
  0xd8, 0x03, 0x00, 0x00, 0x5c, 0x03, 0x00, 0x00, 0xe8, 0x02, 0x00, 0x00,
  0x6c, 0x02, 0x00, 0x00, 0xf8, 0x01, 0x00, 0x00, 0x3c, 0x01, 0x00, 0x00,
  0x80, 0x00, 0x00, 0x00, 0x04, 0x00, 0x00, 0x00, 0x42, 0xfb, 0xff, 0xff,
  0x00, 0x00, 0x00, 0x01, 0x18, 0x00, 0x00, 0x00, 0x20, 0x00, 0x00, 0x00,
  0x3c, 0x00, 0x00, 0x00, 0x0a, 0x00, 0x00, 0x00, 0x00, 0x00, 0x00, 0x09,
  0x50, 0x00, 0x00, 0x00, 0x02, 0x00, 0x00, 0x00, 0xff, 0xff, 0xff, 0xff,
  0x04, 0x00, 0x00, 0x00, 0x2c, 0xfb, 0xff, 0xff, 0x08, 0x00, 0x00, 0x00,
  0x10, 0x00, 0x00, 0x00, 0x01, 0x00, 0x00, 0x00, 0x53, 0x00, 0x00, 0x00,
  0x00, 0x00, 0x00, 0x00, 0x01, 0x00, 0x00, 0x00, 0x64, 0xee, 0xb8, 0x3f,
  0x19, 0x00, 0x00, 0x00, 0x53, 0x74, 0x61, 0x74, 0x65, 0x66, 0x75, 0x6c,
  0x50, 0x61, 0x72, 0x74, 0x69, 0x74, 0x69, 0x6f, 0x6e, 0x65, 0x64, 0x43,
  0x61, 0x6c, 0x6c, 0x3a, 0x30, 0x00, 0x00, 0x00, 0x02, 0x00, 0x00, 0x00,
  0x01, 0x00, 0x00, 0x00, 0x04, 0x00, 0x00, 0x00, 0xba, 0xfb, 0xff, 0xff,
  0x00, 0x00, 0x00, 0x01, 0x18, 0x00, 0x00, 0x00, 0x20, 0x00, 0x00, 0x00,
  0x3c, 0x00, 0x00, 0x00, 0x09, 0x00, 0x00, 0x00, 0x00, 0x00, 0x00, 0x09,
  0x90, 0x00, 0x00, 0x00, 0x02, 0x00, 0x00, 0x00, 0xff, 0xff, 0xff, 0xff,
  0x20, 0x00, 0x00, 0x00, 0xa4, 0xfb, 0xff, 0xff, 0x08, 0x00, 0x00, 0x00,
  0x10, 0x00, 0x00, 0x00, 0x01, 0x00, 0x00, 0x00, 0x80, 0xff, 0xff, 0xff,
  0xff, 0xff, 0xff, 0xff, 0x01, 0x00, 0x00, 0x00, 0x14, 0x7c, 0x1e, 0x3e,
  0x58, 0x00, 0x00, 0x00, 0x73, 0x65, 0x71, 0x75, 0x65, 0x6e, 0x74, 0x69,
  0x61, 0x6c, 0x5f, 0x31, 0x30, 0x2f, 0x64, 0x65, 0x6e, 0x73, 0x65, 0x5f,
  0x34, 0x37, 0x2f, 0x4d, 0x61, 0x74, 0x4d, 0x75, 0x6c, 0x3b, 0x73, 0x65,
  0x71, 0x75, 0x65, 0x6e, 0x74, 0x69, 0x61, 0x6c, 0x5f, 0x31, 0x30, 0x2f,
  0x64, 0x65, 0x6e, 0x73, 0x65, 0x5f, 0x34, 0x37, 0x2f, 0x52, 0x65, 0x6c,
  0x75, 0x3b, 0x73, 0x65, 0x71, 0x75, 0x65, 0x6e, 0x74, 0x69, 0x61, 0x6c,
  0x5f, 0x31, 0x30, 0x2f, 0x64, 0x65, 0x6e, 0x73, 0x65, 0x5f, 0x34, 0x37,
  0x2f, 0x42, 0x69, 0x61, 0x73, 0x41, 0x64, 0x64, 0x00, 0x00, 0x00, 0x00,
  0x02, 0x00, 0x00, 0x00, 0x01, 0x00, 0x00, 0x00, 0x20, 0x00, 0x00, 0x00,
  0x72, 0xfc, 0xff, 0xff, 0x00, 0x00, 0x00, 0x01, 0x18, 0x00, 0x00, 0x00,
  0x20, 0x00, 0x00, 0x00, 0x3c, 0x00, 0x00, 0x00, 0x08, 0x00, 0x00, 0x00,
  0x00, 0x00, 0x00, 0x09, 0x90, 0x00, 0x00, 0x00, 0x02, 0x00, 0x00, 0x00,
  0xff, 0xff, 0xff, 0xff, 0x40, 0x00, 0x00, 0x00, 0x5c, 0xfc, 0xff, 0xff,
  0x08, 0x00, 0x00, 0x00, 0x10, 0x00, 0x00, 0x00, 0x01, 0x00, 0x00, 0x00,
  0x80, 0xff, 0xff, 0xff, 0xff, 0xff, 0xff, 0xff, 0x01, 0x00, 0x00, 0x00,
  0x55, 0xf4, 0x8a, 0x3c, 0x58, 0x00, 0x00, 0x00, 0x73, 0x65, 0x71, 0x75,
  0x65, 0x6e, 0x74, 0x69, 0x61, 0x6c, 0x5f, 0x31, 0x30, 0x2f, 0x64, 0x65,
  0x6e, 0x73, 0x65, 0x5f, 0x34, 0x36, 0x2f, 0x4d, 0x61, 0x74, 0x4d, 0x75,
  0x6c, 0x3b, 0x73, 0x65, 0x71, 0x75, 0x65, 0x6e, 0x74, 0x69, 0x61, 0x6c,
  0x5f, 0x31, 0x30, 0x2f, 0x64, 0x65, 0x6e, 0x73, 0x65, 0x5f, 0x34, 0x36,
  0x2f, 0x52, 0x65, 0x6c, 0x75, 0x3b, 0x73, 0x65, 0x71, 0x75, 0x65, 0x6e,
  0x74, 0x69, 0x61, 0x6c, 0x5f, 0x31, 0x30, 0x2f, 0x64, 0x65, 0x6e, 0x73,
  0x65, 0x5f, 0x34, 0x36, 0x2f, 0x42, 0x69, 0x61, 0x73, 0x41, 0x64, 0x64,
  0x00, 0x00, 0x00, 0x00, 0x02, 0x00, 0x00, 0x00, 0x01, 0x00, 0x00, 0x00,
  0x40, 0x00, 0x00, 0x00, 0xbe, 0xfd, 0xff, 0xff, 0x00, 0x00, 0x00, 0x01,
  0x14, 0x00, 0x00, 0x00, 0x34, 0x00, 0x00, 0x00, 0x07, 0x00, 0x00, 0x00,
  0x00, 0x00, 0x00, 0x09, 0x4c, 0x00, 0x00, 0x00, 0x04, 0xfd, 0xff, 0xff,
  0x08, 0x00, 0x00, 0x00, 0x14, 0x00, 0x00, 0x00, 0x01, 0x00, 0x00, 0x00,
  0x00, 0x00, 0x00, 0x00, 0x00, 0x00, 0x00, 0x00, 0x00, 0x00, 0x00, 0x00,
  0x01, 0x00, 0x00, 0x00, 0x82, 0x04, 0xd2, 0x3c, 0x1d, 0x00, 0x00, 0x00,
  0x73, 0x65, 0x71, 0x75, 0x65, 0x6e, 0x74, 0x69, 0x61, 0x6c, 0x5f, 0x31,
  0x30, 0x2f, 0x64, 0x65, 0x6e, 0x73, 0x65, 0x5f, 0x34, 0x36, 0x2f, 0x4d,
  0x61, 0x74, 0x4d, 0x75, 0x6c, 0x00, 0x00, 0x00, 0x02, 0x00, 0x00, 0x00,
  0x40, 0x00, 0x00, 0x00, 0x02, 0x00, 0x00, 0x00, 0x2e, 0xfe, 0xff, 0xff,
  0x00, 0x00, 0x00, 0x01, 0x14, 0x00, 0x00, 0x00, 0x30, 0x00, 0x00, 0x00,
  0x06, 0x00, 0x00, 0x00, 0x00, 0x00, 0x00, 0x02, 0x58, 0x00, 0x00, 0x00,
  0x74, 0xfd, 0xff, 0xff, 0x08, 0x00, 0x00, 0x00, 0x10, 0x00, 0x00, 0x00,
  0x01, 0x00, 0x00, 0x00, 0x00, 0x00, 0x00, 0x00, 0x00, 0x00, 0x00, 0x00,
  0x01, 0x00, 0x00, 0x00, 0x13, 0x95, 0xa5, 0x3a, 0x2d, 0x00, 0x00, 0x00,
  0x73, 0x65, 0x71, 0x75, 0x65, 0x6e, 0x74, 0x69, 0x61, 0x6c, 0x5f, 0x31,
  0x30, 0x2f, 0x64, 0x65, 0x6e, 0x73, 0x65, 0x5f, 0x34, 0x36, 0x2f, 0x42,
  0x69, 0x61, 0x73, 0x41, 0x64, 0x64, 0x2f, 0x52, 0x65, 0x61, 0x64, 0x56,
  0x61, 0x72, 0x69, 0x61, 0x62, 0x6c, 0x65, 0x4f, 0x70, 0x00, 0x00, 0x00,
  0x01, 0x00, 0x00, 0x00, 0x40, 0x00, 0x00, 0x00, 0xa6, 0xfe, 0xff, 0xff,
  0x00, 0x00, 0x00, 0x01, 0x14, 0x00, 0x00, 0x00, 0x34, 0x00, 0x00, 0x00,
  0x05, 0x00, 0x00, 0x00, 0x00, 0x00, 0x00, 0x09, 0x4c, 0x00, 0x00, 0x00,
  0xec, 0xfd, 0xff, 0xff, 0x08, 0x00, 0x00, 0x00, 0x14, 0x00, 0x00, 0x00,
  0x01, 0x00, 0x00, 0x00, 0x00, 0x00, 0x00, 0x00, 0x00, 0x00, 0x00, 0x00,
  0x00, 0x00, 0x00, 0x00, 0x01, 0x00, 0x00, 0x00, 0x56, 0x08, 0xfa, 0x3c,
  0x1d, 0x00, 0x00, 0x00, 0x73, 0x65, 0x71, 0x75, 0x65, 0x6e, 0x74, 0x69,
  0x61, 0x6c, 0x5f, 0x31, 0x30, 0x2f, 0x64, 0x65, 0x6e, 0x73, 0x65, 0x5f,
  0x34, 0x37, 0x2f, 0x4d, 0x61, 0x74, 0x4d, 0x75, 0x6c, 0x00, 0x00, 0x00,
  0x02, 0x00, 0x00, 0x00, 0x20, 0x00, 0x00, 0x00, 0x40, 0x00, 0x00, 0x00,
  0x16, 0xff, 0xff, 0xff, 0x00, 0x00, 0x00, 0x01, 0x14, 0x00, 0x00, 0x00,
  0x30, 0x00, 0x00, 0x00, 0x04, 0x00, 0x00, 0x00, 0x00, 0x00, 0x00, 0x02,
  0x58, 0x00, 0x00, 0x00, 0x5c, 0xfe, 0xff, 0xff, 0x08, 0x00, 0x00, 0x00,
  0x10, 0x00, 0x00, 0x00, 0x01, 0x00, 0x00, 0x00, 0x00, 0x00, 0x00, 0x00,
  0x00, 0x00, 0x00, 0x00, 0x01, 0x00, 0x00, 0x00, 0x21, 0xb7, 0x07, 0x3a,
  0x2d, 0x00, 0x00, 0x00, 0x73, 0x65, 0x71, 0x75, 0x65, 0x6e, 0x74, 0x69,
  0x61, 0x6c, 0x5f, 0x31, 0x30, 0x2f, 0x64, 0x65, 0x6e, 0x73, 0x65, 0x5f,
  0x34, 0x37, 0x2f, 0x42, 0x69, 0x61, 0x73, 0x41, 0x64, 0x64, 0x2f, 0x52,
  0x65, 0x61, 0x64, 0x56, 0x61, 0x72, 0x69, 0x61, 0x62, 0x6c, 0x65, 0x4f,
  0x70, 0x00, 0x00, 0x00, 0x01, 0x00, 0x00, 0x00, 0x20, 0x00, 0x00, 0x00,
  0x8e, 0xff, 0xff, 0xff, 0x00, 0x00, 0x00, 0x01, 0x14, 0x00, 0x00, 0x00,
  0x34, 0x00, 0x00, 0x00, 0x03, 0x00, 0x00, 0x00, 0x00, 0x00, 0x00, 0x09,
  0x4c, 0x00, 0x00, 0x00, 0xd4, 0xfe, 0xff, 0xff, 0x08, 0x00, 0x00, 0x00,
  0x14, 0x00, 0x00, 0x00, 0x01, 0x00, 0x00, 0x00, 0x00, 0x00, 0x00, 0x00,
  0x00, 0x00, 0x00, 0x00, 0x00, 0x00, 0x00, 0x00, 0x01, 0x00, 0x00, 0x00,
  0x6e, 0xe6, 0x1a, 0x3d, 0x1d, 0x00, 0x00, 0x00, 0x73, 0x65, 0x71, 0x75,
  0x65, 0x6e, 0x74, 0x69, 0x61, 0x6c, 0x5f, 0x31, 0x30, 0x2f, 0x64, 0x65,
  0x6e, 0x73, 0x65, 0x5f, 0x34, 0x38, 0x2f, 0x4d, 0x61, 0x74, 0x4d, 0x75,
  0x6c, 0x00, 0x00, 0x00, 0x02, 0x00, 0x00, 0x00, 0x04, 0x00, 0x00, 0x00,
  0x20, 0x00, 0x00, 0x00, 0x00, 0x00, 0x16, 0x00, 0x1c, 0x00, 0x18, 0x00,
  0x17, 0x00, 0x10, 0x00, 0x0c, 0x00, 0x08, 0x00, 0x00, 0x00, 0x00, 0x00,
  0x00, 0x00, 0x07, 0x00, 0x16, 0x00, 0x00, 0x00, 0x00, 0x00, 0x00, 0x01,
  0x14, 0x00, 0x00, 0x00, 0x34, 0x00, 0x00, 0x00, 0x02, 0x00, 0x00, 0x00,
  0x00, 0x00, 0x00, 0x02, 0x5c, 0x00, 0x00, 0x00, 0x5c, 0xff, 0xff, 0xff,
  0x08, 0x00, 0x00, 0x00, 0x14, 0x00, 0x00, 0x00, 0x01, 0x00, 0x00, 0x00,
  0x00, 0x00, 0x00, 0x00, 0x00, 0x00, 0x00, 0x00, 0x00, 0x00, 0x00, 0x00,
  0x01, 0x00, 0x00, 0x00, 0x97, 0xca, 0xbf, 0x3b, 0x2d, 0x00, 0x00, 0x00,
  0x73, 0x65, 0x71, 0x75, 0x65, 0x6e, 0x74, 0x69, 0x61, 0x6c, 0x5f, 0x31,
  0x30, 0x2f, 0x64, 0x65, 0x6e, 0x73, 0x65, 0x5f, 0x34, 0x38, 0x2f, 0x42,
  0x69, 0x61, 0x73, 0x41, 0x64, 0x64, 0x2f, 0x52, 0x65, 0x61, 0x64, 0x56,
  0x61, 0x72, 0x69, 0x61, 0x62, 0x6c, 0x65, 0x4f, 0x70, 0x00, 0x00, 0x00,
  0x01, 0x00, 0x00, 0x00, 0x04, 0x00, 0x00, 0x00, 0x00, 0x00, 0x16, 0x00,
  0x20, 0x00, 0x1c, 0x00, 0x1b, 0x00, 0x14, 0x00, 0x10, 0x00, 0x0c, 0x00,
  0x00, 0x00, 0x00, 0x00, 0x08, 0x00, 0x07, 0x00, 0x16, 0x00, 0x00, 0x00,
  0x00, 0x00, 0x00, 0x01, 0x18, 0x00, 0x00, 0x00, 0x2c, 0x00, 0x00, 0x00,
  0x48, 0x00, 0x00, 0x00, 0x01, 0x00, 0x00, 0x00, 0x00, 0x00, 0x00, 0x09,
  0x5c, 0x00, 0x00, 0x00, 0x02, 0x00, 0x00, 0x00, 0xff, 0xff, 0xff, 0xff,
  0x02, 0x00, 0x00, 0x00, 0x0c, 0x00, 0x0c, 0x00, 0x00, 0x00, 0x00, 0x00,
  0x08, 0x00, 0x04, 0x00, 0x0c, 0x00, 0x00, 0x00, 0x08, 0x00, 0x00, 0x00,
  0x10, 0x00, 0x00, 0x00, 0x01, 0x00, 0x00, 0x00, 0x80, 0xff, 0xff, 0xff,
  0xff, 0xff, 0xff, 0xff, 0x01, 0x00, 0x00, 0x00, 0xf8, 0xd5, 0x49, 0x3d,
  0x19, 0x00, 0x00, 0x00, 0x73, 0x65, 0x72, 0x76, 0x69, 0x6e, 0x67, 0x5f,
  0x64, 0x65, 0x66, 0x61, 0x75, 0x6c, 0x74, 0x5f, 0x69, 0x6e, 0x70, 0x75,
  0x74, 0x5f, 0x33, 0x3a, 0x30, 0x00, 0x00, 0x00, 0x02, 0x00, 0x00, 0x00,
  0x01, 0x00, 0x00, 0x00, 0x02, 0x00, 0x00, 0x00, 0x01, 0x00, 0x00, 0x00,
  0x10, 0x00, 0x00, 0x00, 0x0c, 0x00, 0x10, 0x00, 0x0f, 0x00, 0x00, 0x00,
  0x08, 0x00, 0x04, 0x00, 0x0c, 0x00, 0x00, 0x00, 0x09, 0x00, 0x00, 0x00,
  0x04, 0x00, 0x00, 0x00, 0x00, 0x00, 0x00, 0x09
};
unsigned int g_model_len = 5000;
