#include "model.h"

const unsigned char g_model[] = {
  0x20, 0x00, 0x00, 0x00, 0x54, 0x46, 0x4c, 0x33, 0x00, 0x00, 0x00, 0x00,
  0x14, 0x00, 0x20, 0x00, 0x1c, 0x00, 0x18, 0x00, 0x14, 0x00, 0x10, 0x00,
  0x0c, 0x00, 0x00, 0x00, 0x08, 0x00, 0x04, 0x00, 0x14, 0x00, 0x00, 0x00,
  0x1c, 0x00, 0x00, 0x00, 0x94, 0x00, 0x00, 0x00, 0xec, 0x00, 0x00, 0x00,
  0x40, 0x0e, 0x00, 0x00, 0x50, 0x0e, 0x00, 0x00, 0x8c, 0x16, 0x00, 0x00,
  0x03, 0x00, 0x00, 0x00, 0x01, 0x00, 0x00, 0x00, 0x10, 0x00, 0x00, 0x00,
  0x00, 0x00, 0x0a, 0x00, 0x10, 0x00, 0x0c, 0x00, 0x08, 0x00, 0x04, 0x00,
  0x0a, 0x00, 0x00, 0x00, 0x0c, 0x00, 0x00, 0x00, 0x1c, 0x00, 0x00, 0x00,
  0x38, 0x00, 0x00, 0x00, 0x0f, 0x00, 0x00, 0x00, 0x73, 0x65, 0x72, 0x76,
  0x69, 0x6e, 0x67, 0x5f, 0x64, 0x65, 0x66, 0x61, 0x75, 0x6c, 0x74, 0x00,
  0x01, 0x00, 0x00, 0x00, 0x04, 0x00, 0x00, 0x00, 0x94, 0xff, 0xff, 0xff,
  0x0c, 0x00, 0x00, 0x00, 0x04, 0x00, 0x00, 0x00, 0x07, 0x00, 0x00, 0x00,
  0x64, 0x65, 0x6e, 0x73, 0x65, 0x5f, 0x35, 0x00, 0x01, 0x00, 0x00, 0x00,
  0x04, 0x00, 0x00, 0x00, 0x4e, 0xf2, 0xff, 0xff, 0x04, 0x00, 0x00, 0x00,
  0x0d, 0x00, 0x00, 0x00, 0x64, 0x65, 0x6e, 0x73, 0x65, 0x5f, 0x32, 0x5f,
  0x69, 0x6e, 0x70, 0x75, 0x74, 0x00, 0x00, 0x00, 0x02, 0x00, 0x00, 0x00,
  0x34, 0x00, 0x00, 0x00, 0x04, 0x00, 0x00, 0x00, 0xdc, 0xff, 0xff, 0xff,
  0x0f, 0x00, 0x00, 0x00, 0x04, 0x00, 0x00, 0x00, 0x13, 0x00, 0x00, 0x00,
  0x43, 0x4f, 0x4e, 0x56, 0x45, 0x52, 0x53, 0x49, 0x4f, 0x4e, 0x5f, 0x4d,
  0x45, 0x54, 0x41, 0x44, 0x41, 0x54, 0x41, 0x00, 0x08, 0x00, 0x0c, 0x00,
  0x08, 0x00, 0x04, 0x00, 0x08, 0x00, 0x00, 0x00, 0x0e, 0x00, 0x00, 0x00,
  0x04, 0x00, 0x00, 0x00, 0x13, 0x00, 0x00, 0x00, 0x6d, 0x69, 0x6e, 0x5f,
  0x72, 0x75, 0x6e, 0x74, 0x69, 0x6d, 0x65, 0x5f, 0x76, 0x65, 0x72, 0x73,
  0x69, 0x6f, 0x6e, 0x00, 0x10, 0x00, 0x00, 0x00, 0x50, 0x0d, 0x00, 0x00,
  0x48, 0x0d, 0x00, 0x00, 0x34, 0x0d, 0x00, 0x00, 0x0c, 0x0d, 0x00, 0x00,
  0xbc, 0x0c, 0x00, 0x00, 0xac, 0x0a, 0x00, 0x00, 0x1c, 0x0a, 0x00, 0x00,
  0x0c, 0x02, 0x00, 0x00, 0xfc, 0x00, 0x00, 0x00, 0xac, 0x00, 0x00, 0x00,
  0xa4, 0x00, 0x00, 0x00, 0x9c, 0x00, 0x00, 0x00, 0x94, 0x00, 0x00, 0x00,
  0x8c, 0x00, 0x00, 0x00, 0x6c, 0x00, 0x00, 0x00, 0x04, 0x00, 0x00, 0x00,
  0x0a, 0xf3, 0xff, 0xff, 0x04, 0x00, 0x00, 0x00, 0x58, 0x00, 0x00, 0x00,
  0x0c, 0x00, 0x00, 0x00, 0x08, 0x00, 0x0e, 0x00, 0x08, 0x00, 0x04, 0x00,
  0x08, 0x00, 0x00, 0x00, 0x10, 0x00, 0x00, 0x00, 0x28, 0x00, 0x00, 0x00,
  0x00, 0x00, 0x06, 0x00, 0x08, 0x00, 0x04, 0x00, 0x06, 0x00, 0x00, 0x00,
  0x04, 0x00, 0x00, 0x00, 0x01, 0x00, 0x00, 0x00, 0xeb, 0x03, 0x00, 0x00,
  0x00, 0x00, 0x0a, 0x00, 0x10, 0x00, 0x0c, 0x00, 0x08, 0x00, 0x04, 0x00,
  0x0a, 0x00, 0x00, 0x00, 0x01, 0x00, 0x00, 0x00, 0x02, 0x00, 0x00, 0x00,
  0x04, 0x00, 0x00, 0x00, 0x06, 0x00, 0x00, 0x00, 0x32, 0x2e, 0x31, 0x32,
  0x2e, 0x30, 0x00, 0x00, 0x6e, 0xf3, 0xff, 0xff, 0x04, 0x00, 0x00, 0x00,
  0x10, 0x00, 0x00, 0x00, 0x31, 0x2e, 0x31, 0x34, 0x2e, 0x30, 0x00, 0x00,
  0x00, 0x00, 0x00, 0x00, 0x00, 0x00, 0x00, 0x00, 0xf4, 0xf2, 0xff, 0xff,
  0xf8, 0xf2, 0xff, 0xff, 0xfc, 0xf2, 0xff, 0xff, 0x00, 0xf3, 0xff, 0xff,
  0x9a, 0xf3, 0xff, 0xff, 0x04, 0x00, 0x00, 0x00, 0x40, 0x00, 0x00, 0x00,
  0xfd, 0x38, 0x7f, 0x00, 0x26, 0xe9, 0xe7, 0x70, 0xfd, 0xdb, 0x74, 0xe5,
  0xdf, 0xad, 0x27, 0xb7, 0xe7, 0xa3, 0x71, 0x95, 0x88, 0xf2, 0x26, 0xcb,
  0xff, 0x1b, 0x40, 0x69, 0xfa, 0xfd, 0x38, 0x49, 0x83, 0x14, 0x6b, 0x8c,
  0x1a, 0xfc, 0x46, 0x2f, 0x29, 0x11, 0x67, 0xdd, 0x6f, 0x3c, 0xe6, 0x61,
  0xfd, 0x49, 0x7b, 0x85, 0x7a, 0x5f, 0xc0, 0xcc, 0xa0, 0x54, 0xfe, 0x96,
  0x2d, 0xf1, 0x21, 0x6d, 0xe6, 0xf3, 0xff, 0xff, 0x04, 0x00, 0x00, 0x00,
  0x00, 0x01, 0x00, 0x00, 0x95, 0xff, 0xff, 0xff, 0x6c, 0xe7, 0xff, 0xff,
  0x03, 0xf1, 0xff, 0xff, 0xe8, 0xfe, 0xff, 0xff, 0x25, 0xf0, 0xff, 0xff,
  0x00, 0x00, 0x00, 0x00, 0x00, 0x00, 0x00, 0x00, 0x4c, 0x03, 0x00, 0x00,
  0x00, 0x00, 0x00, 0x00, 0x00, 0x00, 0x00, 0x00, 0x65, 0x03, 0x00, 0x00,
  0x00, 0x00, 0x00, 0x00, 0x00, 0x00, 0x00, 0x00, 0x00, 0x00, 0x00, 0x00,
  0x29, 0xf1, 0xff, 0xff, 0x00, 0x00, 0x00, 0x00, 0x00, 0x00, 0x00, 0x00,
  0x00, 0x00, 0x00, 0x00, 0xcf, 0xff, 0xff, 0xff, 0x00, 0x00, 0x00, 0x00,
  0x00, 0x00, 0x00, 0x00, 0x00, 0x00, 0x00, 0x00, 0xf1, 0x0a, 0x00, 0x00,
  0x00, 0x00, 0x00, 0x00, 0x00, 0x00, 0x00, 0x00, 0x94, 0x00, 0x00, 0x00,
  0x00, 0x0b, 0x00, 0x00, 0xb4, 0xe7, 0xff, 0xff, 0x00, 0x00, 0x00, 0x00,
  0x6a, 0xff, 0xff, 0xff, 0xa2, 0xf8, 0xff, 0xff, 0xe2, 0x07, 0x00, 0x00,
  0x00, 0x00, 0x00, 0x00, 0x8d, 0xfe, 0xff, 0xff, 0x4b, 0xf8, 0xff, 0xff,
  0x00, 0x00, 0x00, 0x00, 0x85, 0x0b, 0x00, 0x00, 0x1d, 0x1d, 0x00, 0x00,
  0xec, 0xfe, 0xff, 0xff, 0x98, 0xf1, 0xff, 0xff, 0xfc, 0xf5, 0xff, 0xff,
  0x09, 0x09, 0x00, 0x00, 0x90, 0xf3, 0xff, 0xff, 0x00, 0x00, 0x00, 0x00,
  0xc3, 0xf7, 0xff, 0xff, 0x31, 0xf1, 0xff, 0xff, 0x00, 0x00, 0x00, 0x00,
  0x42, 0x05, 0x00, 0x00, 0xf6, 0xfe, 0xff, 0xff, 0xd3, 0x0b, 0x00, 0x00,
  0x53, 0x00, 0x00, 0x00, 0x00, 0x00, 0x00, 0x00, 0x98, 0xfa, 0xff, 0xff,
  0x1d, 0xf6, 0xff, 0xff, 0x00, 0x00, 0x00, 0x00, 0x00, 0x00, 0x00, 0x00,
  0x00, 0x00, 0x00, 0x00, 0xe4, 0x01, 0x00, 0x00, 0x7b, 0x0c, 0x00, 0x00,
  0x00, 0x00, 0x00, 0x00, 0xda, 0x02, 0x00, 0x00, 0x00, 0x00, 0x00, 0x00,
  0x1f, 0x09, 0x00, 0x00, 0x75, 0x08, 0x00, 0x00, 0xf2, 0xf4, 0xff, 0xff,
  0x04, 0x00, 0x00, 0x00, 0x00, 0x08, 0x00, 0x00, 0xeb, 0x30, 0xf9, 0x0a,
  0x28, 0x13, 0xd8, 0xd6, 0xe5, 0xf0, 0xf5, 0xf2, 0xfc, 0xf8, 0xdd, 0xfa,
  0x1c, 0xfe, 0xdb, 0xe7, 0xf0, 0x00, 0xe3, 0x01, 0xec, 0x12, 0x1f, 0x11,
  0xff, 0xf9, 0x10, 0x0b, 0x0e, 0x11, 0x13, 0x24, 0xde, 0xd7, 0x28, 0x0c,
  0xdb, 0x07, 0x28, 0xf0, 0xe0, 0x01, 0x12, 0x0a, 0xd8, 0x23, 0x01, 0x0e,
  0x1d, 0x21, 0x19, 0xe1, 0xeb, 0x18, 0x14, 0xe6, 0x12, 0xfb, 0x08, 0x22,
  0x1d, 0x15, 0xf3, 0xe7, 0xd9, 0xf3, 0x0d, 0xe0, 0xdc, 0xd7, 0xd7, 0xe8,
  0xd7, 0xf7, 0xe0, 0xe7, 0x04, 0x23, 0xee, 0xdb, 0x0b, 0xe3, 0xfd, 0x01,
  0xfa, 0x1f, 0xe8, 0xf3, 0x26, 0xe6, 0xeb, 0xe7, 0x05, 0xd9, 0x19, 0xdd,
  0x12, 0xe5, 0x07, 0x12, 0xdf, 0xea, 0xdb, 0xf4, 0x20, 0x0f, 0xea, 0xec,
  0xdd, 0xdc, 0xfd, 0xd8, 0xe4, 0xf6, 0xde, 0x2a, 0x09, 0x13, 0xd7, 0x27,
  0xe5, 0x10, 0x09, 0x26, 0x10, 0x1a, 0x09, 0x08, 0xea, 0xed, 0xfa, 0x13,
  0xd9, 0x1a, 0x1d, 0x25, 0x0f, 0xf2, 0x12, 0x15, 0x18, 0x08, 0xf2, 0xed,
  0x04, 0xe5, 0xef, 0x17, 0xdd, 0x00, 0xe1, 0x01, 0xef, 0xe2, 0xec, 0xe2,
  0xed, 0x27, 0x0b, 0xdf, 0xed, 0xed, 0xff, 0x1b, 0x1f, 0xf2, 0xeb, 0x26,
  0xe4, 0x25, 0xf8, 0x0a, 0x1c, 0x01, 0xea, 0xef, 0xef, 0xea, 0x25, 0x1f,
  0xf7, 0x26, 0xd5, 0x16, 0x13, 0xf9, 0xfd, 0xe6, 0x04, 0x13, 0x00, 0xde,
  0xfb, 0x0f, 0xe4, 0x0e, 0xf8, 0x1f, 0xe5, 0x16, 0x1e, 0x15, 0xd6, 0xd8,
  0x24, 0x1f, 0x01, 0x25, 0xe8, 0x1b, 0x29, 0xe1, 0x0c, 0x0d, 0xfa, 0x01,
  0xd8, 0x24, 0x05, 0xd6, 0x29, 0x10, 0xdc, 0x02, 0xdc, 0x0f, 0x05, 0xe4,
  0xe8, 0xf2, 0x27, 0x03, 0x21, 0x0e, 0x06, 0xf5, 0xe4, 0xe7, 0xe1, 0x11,
  0xfb, 0xd7, 0x0c, 0xf6, 0x08, 0xfd, 0x14, 0x1e, 0xe2, 0x0e, 0xe3, 0x1f,
  0x1c, 0xbc, 0xd9, 0x21, 0xd0, 0x28, 0xfd, 0x0b, 0xee, 0x15, 0xe1, 0xf9,
  0xdf, 0xf8, 0xba, 0xe8, 0xdf, 0x0f, 0xd1, 0xdb, 0x21, 0xf5, 0x1c, 0xf1,
  0x11, 0xe3, 0x19, 0x07, 0x0a, 0xea, 0x17, 0xeb, 0x10, 0xf1, 0x07, 0x0f,
  0xfc, 0x11, 0xf2, 0xdb, 0xfd, 0x09, 0xea, 0x0e, 0x13, 0x24, 0xe4, 0xff,
  0x25, 0x10, 0x0b, 0xef, 0x17, 0xd8, 0xee, 0xdb, 0xea, 0x10, 0xfc, 0x0d,
  0xd8, 0xd7, 0x21, 0x15, 0xe8, 0x0f, 0xfd, 0x1a, 0x1b, 0x13, 0x14, 0xd9,
  0x12, 0xf8, 0xfa, 0xe7, 0xd8, 0xf7, 0xec, 0x28, 0x07, 0x13, 0x07, 0xe8,
  0x1e, 0x09, 0xf9, 0x01, 0xfa, 0x17, 0x09, 0xda, 0xee, 0x11, 0x00, 0x02,
  0x22, 0xf1, 0xe0, 0x2a, 0x25, 0x0d, 0xde, 0xd9, 0x04, 0x0b, 0x1c, 0xe4,
  0xf3, 0x08, 0x27, 0x00, 0x29, 0xd5, 0xe5, 0x23, 0xd6, 0xfd, 0xfd, 0xfd,
  0x24, 0xf9, 0xf1, 0x15, 0x05, 0x26, 0xe6, 0x0b, 0xef, 0x23, 0x14, 0x27,
  0xff, 0xfb, 0xdd, 0x12, 0x14, 0x1f, 0x14, 0xdc, 0x18, 0x0a, 0xf3, 0xfb,
  0x03, 0x20, 0xe4, 0xd7, 0x29, 0x1a, 0x01, 0xee, 0xe8, 0xe7, 0xfc, 0xe2,
  0x09, 0x1f, 0x13, 0xdd, 0xe6, 0x1e, 0x21, 0x1b, 0x19, 0xd5, 0x13, 0x21,
  0xf4, 0xe4, 0x15, 0x1c, 0x1b, 0xed, 0xf7, 0x05, 0xe5, 0xfa, 0x1b, 0xe5,
  0x0d, 0x16, 0xf7, 0xe1, 0x1f, 0x16, 0xc5, 0xe8, 0x13, 0xfe, 0x0d, 0xff,
  0xfd, 0xda, 0xe9, 0xf7, 0xd2, 0xef, 0x07, 0xdb, 0xdf, 0x18, 0xe3, 0x1b,
  0x0b, 0xf5, 0x11, 0x1c, 0x0d, 0x0e, 0x19, 0xd9, 0x1a, 0x0d, 0x08, 0xe7,
  0x16, 0x23, 0xec, 0xe7, 0x19, 0x05, 0x21, 0x11, 0xd7, 0xe3, 0xde, 0xf0,
  0x08, 0x20, 0xe7, 0xe2, 0xf3, 0x1a, 0x01, 0xfb, 0xfe, 0x0d, 0x13, 0x21,
  0xe7, 0x04, 0x29, 0xe6, 0x1f, 0xf2, 0xfa, 0xd9, 0x27, 0x0a, 0x18, 0xe2,
  0x24, 0xee, 0xe4, 0x0c, 0xe9, 0xde, 0xcc, 0x05, 0xe2, 0x0d, 0xf4, 0xe7,
  0xec, 0x22, 0xd6, 0x28, 0xee, 0x1d, 0xd1, 0x25, 0x0f, 0xd9, 0xe8, 0x0a,
  0x13, 0xf9, 0x18, 0xdb, 0xfa, 0xef, 0xed, 0xe5, 0x1c, 0xfd, 0xf2, 0x19,
  0x16, 0xe1, 0x11, 0x04, 0x0c, 0x32, 0x19, 0xd6, 0x06, 0x16, 0xef, 0x0a,
  0x0d, 0xcb, 0x21, 0x0d, 0x23, 0x0e, 0xc9, 0x1f, 0xfb, 0xd4, 0x02, 0xed,
  0xf5, 0x0c, 0xf7, 0xf3, 0xfc, 0x1b, 0xf0, 0x1d, 0xdd, 0xea, 0xe0, 0xee,
  0x18, 0xf0, 0xe2, 0xcf, 0x17, 0xff, 0xe6, 0xf8, 0x00, 0x04, 0x05, 0xe5,
  0x1b, 0xe6, 0xdd, 0xe3, 0xeb, 0x16, 0xf9, 0x26, 0x28, 0xdb, 0xe5, 0x20,
  0x0c, 0xd8, 0xf1, 0x1d, 0xdf, 0xc2, 0x05, 0xe8, 0x02, 0x36, 0xc7, 0xce,
  0xc8, 0x18, 0x01, 0x1b, 0xab, 0x05, 0xf3, 0x0c, 0xf4, 0xf3, 0xda, 0xe0,
  0xcb, 0xca, 0xf7, 0xed, 0x15, 0x07, 0xf8, 0xe2, 0x0f, 0x18, 0x18, 0xeb,
  0xf8, 0x81, 0x09, 0x28, 0xc3, 0x27, 0xf6, 0x1e, 0xf5, 0xf9, 0x1a, 0xe4,
  0xd8, 0xef, 0xa8, 0x0a, 0xf8, 0x0c, 0x19, 0x11, 0x15, 0xf8, 0x1b, 0x17,
  0xd9, 0xfa, 0x30, 0xc5, 0xfc, 0xff, 0xea, 0x08, 0x22, 0x0c, 0xe9, 0x05,
  0x2c, 0x4a, 0x04, 0xd2, 0xd1, 0x29, 0xfa, 0xec, 0xdb, 0xce, 0x09, 0xf3,
  0x12, 0x29, 0x0a, 0x1e, 0xd8, 0xe2, 0x20, 0xe5, 0x0e, 0xe5, 0x34, 0xdc,
  0x12, 0x24, 0xfa, 0x24, 0xf2, 0xd8, 0xff, 0xdd, 0x02, 0x24, 0xd6, 0xe4,
  0xf4, 0x0f, 0x20, 0x00, 0xfe, 0x09, 0xff, 0xdb, 0x0c, 0xf8, 0xe1, 0x14,
  0xeb, 0x07, 0x1e, 0xe9, 0x29, 0xf8, 0x24, 0xe1, 0x0c, 0xf0, 0xea, 0x10,
  0xe0, 0xf0, 0xe7, 0x00, 0x04, 0x3f, 0xdc, 0x1b, 0xfa, 0x0b, 0xe0, 0x0f,
  0xea, 0xd5, 0xdb, 0x03, 0xe7, 0x02, 0x09, 0x12, 0x0c, 0xdf, 0x12, 0xea,
  0xda, 0x26, 0x4e, 0x0a, 0x13, 0x26, 0x2d, 0xd8, 0x1e, 0xde, 0xca, 0xf2,
  0xd5, 0x1e, 0x03, 0xd2, 0xec, 0xff, 0x0a, 0xef, 0xec, 0x1c, 0xf1, 0xf6,
  0x1d, 0xdf, 0xdd, 0x29, 0xe3, 0xf0, 0xec, 0x05, 0xd8, 0xfd, 0xf5, 0xde,
  0xe2, 0x28, 0xe4, 0x1a, 0x13, 0xcd, 0xf8, 0xf8, 0x37, 0x3c, 0xdd, 0x08,
  0xd6, 0x04, 0xba, 0x08, 0xc1, 0x1a, 0xe2, 0x1d, 0x04, 0x16, 0xe7, 0xd8,
  0xfb, 0xec, 0x23, 0xe0, 0x0b, 0x15, 0x0e, 0x0e, 0xfa, 0xdc, 0x2e, 0x02,
  0x26, 0xea, 0xff, 0x19, 0x13, 0x1e, 0x02, 0x0a, 0x28, 0x1a, 0x27, 0xe7,
  0x04, 0x1b, 0x19, 0x17, 0xfd, 0x29, 0x20, 0x1a, 0xf7, 0xe5, 0xea, 0x18,
  0xf5, 0x05, 0xf6, 0x21, 0xfb, 0x22, 0x0c, 0xf8, 0x07, 0x0e, 0x25, 0xdc,
  0xe3, 0x26, 0x1b, 0x19, 0x0e, 0xe2, 0x0c, 0x03, 0xf0, 0xd6, 0x00, 0xdd,
  0x1d, 0xef, 0x0b, 0x10, 0xef, 0x19, 0xfe, 0x26, 0x18, 0xf9, 0x29, 0xe0,
  0xe4, 0x14, 0xde, 0xe6, 0xeb, 0xe3, 0x07, 0xd8, 0x1f, 0x17, 0xde, 0xe8,
  0xf7, 0x07, 0x01, 0x01, 0xdb, 0x29, 0xed, 0x11, 0x00, 0xec, 0x1a, 0xfd,
  0x12, 0x00, 0x07, 0x1a, 0xeb, 0xe4, 0xf3, 0xd6, 0x05, 0x0a, 0xdd, 0xdf,
  0x00, 0xda, 0xf4, 0x15, 0x08, 0x07, 0x24, 0xfe, 0x1f, 0xec, 0x15, 0xf1,
  0x1c, 0xfd, 0xe7, 0x0e, 0x07, 0xf1, 0x11, 0xee, 0x16, 0x22, 0xf0, 0xf7,
  0x13, 0xf5, 0xee, 0xe3, 0xd7, 0xfb, 0x1b, 0x18, 0xdc, 0xd9, 0xe1, 0xf6,
  0x0b, 0x14, 0x21, 0xce, 0x10, 0x08, 0xf6, 0xdb, 0x28, 0x14, 0xbe, 0x18,
  0x12, 0xf3, 0xee, 0x19, 0x12, 0x1d, 0xf7, 0x19, 0x16, 0xf2, 0x1d, 0xc0,
  0xeb, 0xd9, 0xcf, 0x1c, 0xec, 0xd0, 0xf1, 0x17, 0x1c, 0x19, 0x08, 0xf7,
  0xf7, 0x12, 0x13, 0x0e, 0x06, 0xf4, 0xd8, 0x0d, 0x13, 0x27, 0xe5, 0x03,
  0xc8, 0xd0, 0x26, 0xeb, 0x1c, 0x31, 0x07, 0x29, 0xfa, 0xe7, 0x2b, 0x06,
  0xe2, 0x01, 0xe9, 0x21, 0x0f, 0x22, 0x27, 0x26, 0xfd, 0xe3, 0xff, 0xdd,
  0x1d, 0xf4, 0xe1, 0xf7, 0x1b, 0xef, 0xdb, 0x05, 0x07, 0xf1, 0xdc, 0xfb,
  0xf1, 0x1b, 0xf0, 0x07, 0xdf, 0xed, 0x13, 0xe7, 0x07, 0xe2, 0xe5, 0xe6,
  0xd9, 0x0a, 0xed, 0xf9, 0xe1, 0x12, 0x0a, 0x23, 0xd8, 0xfa, 0x00, 0x06,
  0xfb, 0xff, 0x1a, 0xf6, 0x0f, 0xdb, 0xd8, 0xfe, 0xdd, 0xea, 0x21, 0xf0,
  0x14, 0xee, 0x02, 0xe1, 0xdf, 0x25, 0xec, 0x14, 0x16, 0xd8, 0xf3, 0x08,
  0x12, 0x01, 0x0a, 0x22, 0x1c, 0x14, 0x1b, 0x21, 0xfc, 0x23, 0x0c, 0xed,
  0x23, 0x07, 0x07, 0xf7, 0x23, 0x11, 0x15, 0x04, 0x04, 0xef, 0x1b, 0xfd,
  0xf2, 0x17, 0x12, 0x18, 0xe2, 0x20, 0xf7, 0x07, 0xf5, 0x24, 0x28, 0x0c,
  0xfb, 0x0c, 0x03, 0xdf, 0xdf, 0x19, 0x0f, 0xe0, 0x0e, 0x26, 0x0c, 0xd8,
  0xf2, 0x17, 0xce, 0xf2, 0xea, 0xea, 0xd7, 0xee, 0x07, 0x19, 0xdd, 0xde,
  0x1d, 0x18, 0xe4, 0x0a, 0x14, 0xe3, 0xed, 0x1c, 0x06, 0x19, 0x04, 0xd8,
  0x11, 0xfd, 0xed, 0x0a, 0x19, 0xf7, 0xe5, 0xe4, 0x0b, 0x19, 0x08, 0xf6,
  0x23, 0x02, 0x11, 0xff, 0xdc, 0xf6, 0x21, 0xd8, 0xdd, 0xf5, 0xff, 0x28,
  0xd6, 0x0c, 0xf6, 0x0a, 0x1a, 0xdf, 0xf9, 0xf6, 0x07, 0xf8, 0x25, 0x01,
  0x13, 0xfd, 0x03, 0x25, 0x28, 0xf9, 0x07, 0x20, 0xe3, 0x00, 0xec, 0xf3,
  0x19, 0xe5, 0xf7, 0xdd, 0x2a, 0x22, 0xeb, 0xd0, 0x1f, 0xe1, 0xcc, 0x08,
  0xdc, 0x08, 0x1d, 0x26, 0x01, 0x1e, 0xe4, 0x1e, 0x27, 0xf4, 0x10, 0x2a,
  0xec, 0xf6, 0x25, 0xf8, 0x04, 0xed, 0xf0, 0xef, 0xff, 0x17, 0xe2, 0x06,
  0x0e, 0x21, 0xec, 0xdd, 0x26, 0x23, 0x25, 0xdc, 0xed, 0xf4, 0x25, 0xdf,
  0x2a, 0x02, 0xd1, 0xf6, 0xd1, 0xdd, 0xf2, 0xe2, 0x18, 0xdb, 0xef, 0x15,
  0x1e, 0xe9, 0xf6, 0xf8, 0xfd, 0x30, 0x03, 0xff, 0x2d, 0xff, 0x12, 0x01,
  0x22, 0xef, 0xe6, 0x1f, 0xe8, 0x27, 0x2e, 0xe3, 0x0d, 0x06, 0x05, 0x08,
  0xeb, 0x1d, 0xf6, 0xfd, 0x08, 0xf0, 0x14, 0x30, 0xef, 0xee, 0x1e, 0xdc,
  0xed, 0xf6, 0x07, 0x05, 0xfb, 0xf5, 0xf1, 0x31, 0x06, 0x25, 0x29, 0x1d,
  0xec, 0x21, 0xfb, 0xf6, 0xf0, 0x0a, 0xef, 0xd7, 0x2a, 0xe9, 0x21, 0x1f,
  0x15, 0xe8, 0xc9, 0x23, 0x2c, 0x03, 0xed, 0x2e, 0x26, 0xde, 0xd8, 0x09,
  0xf1, 0x26, 0x01, 0xf5, 0x15, 0xf6, 0x0e, 0x28, 0xf2, 0xe2, 0x26, 0x03,
  0x04, 0x13, 0xf7, 0xf3, 0xf1, 0xf8, 0xef, 0xde, 0x01, 0xf9, 0xf6, 0x23,
  0xe5, 0x0a, 0xfb, 0x1e, 0xdf, 0xf0, 0x11, 0x13, 0xe0, 0xd9, 0x20, 0x26,
  0xeb, 0x27, 0xd7, 0x1e, 0x1c, 0xfd, 0x15, 0xe9, 0xf5, 0xe4, 0xd4, 0x23,
  0x19, 0xe4, 0xe8, 0x18, 0xd8, 0x24, 0xed, 0xe7, 0xfb, 0xd9, 0x04, 0x10,
  0x1e, 0x1c, 0x01, 0x17, 0x04, 0x18, 0x1a, 0xe7, 0x0f, 0x0f, 0x1a, 0xff,
  0xe3, 0xe9, 0x03, 0x0d, 0x11, 0x05, 0x20, 0x04, 0xf2, 0x0e, 0xed, 0x13,
  0x1d, 0xf0, 0x04, 0x29, 0xe0, 0x17, 0xe9, 0x0f, 0xd7, 0x04, 0x22, 0x29,
  0xe4, 0xe7, 0x19, 0xfb, 0x1c, 0xf8, 0x01, 0x10, 0xe5, 0x18, 0xda, 0xff,
  0x28, 0xe6, 0x24, 0x21, 0x26, 0xe1, 0x1a, 0x1c, 0xe6, 0xdc, 0xdd, 0xdb,
  0x1b, 0xd8, 0xea, 0xe8, 0x05, 0xd4, 0x08, 0x26, 0xcd, 0xff, 0x17, 0xee,
  0x06, 0xe0, 0x0c, 0xf1, 0x17, 0xfa, 0xdd, 0xdb, 0xfd, 0x07, 0x22, 0x00,
  0xde, 0x12, 0xe6, 0x0f, 0x26, 0x22, 0x0c, 0xe1, 0x27, 0x13, 0x08, 0x22,
  0x1d, 0x1d, 0x07, 0xed, 0x27, 0x18, 0x1c, 0xeb, 0xd7, 0x13, 0xee, 0xff,
  0xea, 0x08, 0xf0, 0xfe, 0x00, 0x0f, 0x06, 0xeb, 0xeb, 0xed, 0x0e, 0x0e,
  0xd7, 0x1a, 0x16, 0xe0, 0x16, 0x2a, 0x1c, 0xe5, 0xf3, 0x12, 0xea, 0xda,
  0x00, 0xe1, 0x04, 0xf7, 0xf0, 0xd7, 0xdf, 0xe0, 0xf8, 0x09, 0xec, 0xdd,
  0xfb, 0x07, 0x22, 0xf3, 0xfc, 0xfc, 0x10, 0xda, 0xf8, 0x1e, 0xf4, 0x11,
  0xe0, 0x23, 0xff, 0x1a, 0x28, 0xe0, 0xea, 0x15, 0x1a, 0x12, 0xe1, 0xfa,
  0x09, 0xda, 0x02, 0x20, 0xeb, 0xda, 0xea, 0xf3, 0x0d, 0xf0, 0xea, 0x1c,
  0x0d, 0x0a, 0x08, 0xfe, 0x0b, 0x05, 0xfb, 0xe4, 0xde, 0xfb, 0xd9, 0xff,
  0xdd, 0x04, 0xd6, 0x0d, 0x11, 0x18, 0x06, 0x1f, 0x09, 0x17, 0xdc, 0xfe,
  0x1d, 0xfb, 0x25, 0x1d, 0x09, 0x0e, 0xfe, 0x17, 0x1f, 0xef, 0xf7, 0xe4,
  0xea, 0x14, 0xdb, 0xe0, 0x12, 0xe1, 0xf5, 0xdb, 0x08, 0xe3, 0x0b, 0xe2,
  0xf9, 0x04, 0x20, 0x02, 0x16, 0xd9, 0xdd, 0x13, 0x20, 0xe9, 0x1b, 0xd7,
  0x0e, 0x0b, 0xe2, 0x28, 0x21, 0x06, 0xe5, 0x0b, 0xdc, 0x01, 0x0d, 0xf5,
  0x08, 0xdf, 0xff, 0x25, 0x1f, 0xd8, 0xd1, 0x01, 0xd0, 0xd8, 0x1f, 0x10,
  0xeb, 0xe8, 0x0a, 0x19, 0x15, 0x07, 0x05, 0xf1, 0x1d, 0xf6, 0x15, 0x18,
  0x25, 0x13, 0xec, 0xe0, 0xfe, 0xff, 0xe6, 0xff, 0xf8, 0x21, 0x0f, 0x1d,
  0x22, 0x20, 0x15, 0x0d, 0x0d, 0x51, 0xf2, 0xd6, 0xe7, 0x08, 0xd7, 0x0d,
  0x1b, 0x1b, 0x20, 0x0f, 0xfa, 0x12, 0xd8, 0x05, 0x0d, 0x1c, 0xef, 0xd8,
  0xf0, 0x24, 0x47, 0xf2, 0xf9, 0x10, 0xfd, 0x01, 0x05, 0xde, 0xe4, 0x13,
  0x12, 0x1c, 0x13, 0x18, 0xe2, 0xf1, 0xf5, 0x10, 0x28, 0x18, 0x14, 0xed,
  0xe0, 0x1e, 0xf7, 0x29, 0x27, 0x19, 0x0e, 0x03, 0x1f, 0xd7, 0x17, 0xfc,
  0x29, 0x13, 0xe4, 0xfa, 0xda, 0x12, 0xe1, 0x16, 0x23, 0xee, 0x00, 0x0c,
  0xe2, 0xde, 0xf6, 0xf1, 0xf8, 0x0c, 0x05, 0xfc, 0x14, 0xfb, 0x04, 0x18,
  0xfb, 0x0f, 0xe9, 0xfb, 0x17, 0xd2, 0xe0, 0x10, 0xd5, 0xfc, 0x02, 0x12,
  0xdf, 0xfa, 0xf3, 0x13, 0xeb, 0xe0, 0x07, 0x00, 0xfb, 0xeb, 0xec, 0xfc,
  0x26, 0x15, 0x03, 0x03, 0x28, 0xde, 0xe5, 0xe8, 0x17, 0xef, 0xe1, 0xe0,
  0xe6, 0x15, 0x00, 0xe5, 0xea, 0x14, 0xe9, 0x0b, 0xe5, 0xed, 0xe4, 0x0c,
  0xf4, 0xe2, 0x1f, 0x03, 0x19, 0x21, 0xe4, 0xea, 0x0c, 0x21, 0x15, 0x0b,
  0xfe, 0x07, 0x1d, 0x04, 0x10, 0xfa, 0xf8, 0xfa, 0xef, 0xe4, 0x16, 0x09,
  0xdb, 0xf1, 0xf7, 0xec, 0x1f, 0xfe, 0xe4, 0xe7, 0x08, 0xf2, 0xfc, 0x1f,
  0xf9, 0x27, 0x18, 0xf2, 0x1b, 0xec, 0xff, 0x14, 0x13, 0x12, 0xf1, 0x16,
  0xdd, 0xdd, 0xdd, 0x1f, 0xda, 0x17, 0xee, 0x0b, 0x12, 0x28, 0x08, 0x12,
  0xed, 0xed, 0xed, 0x17, 0x1a, 0x34, 0x15, 0x06, 0xeb, 0x05, 0xe8, 0x21,
  0x05, 0x0e, 0x1b, 0xfd, 0xdb, 0xd9, 0xff, 0x0a, 0x20, 0x28, 0x03, 0xe3,
  0xf5, 0x14, 0x44, 0x0b, 0xf8, 0xd8, 0xe8, 0x13, 0xe1, 0x0b, 0xd7, 0xdf,
  0xe1, 0xed, 0x17, 0xf6, 0xe9, 0x29, 0xdd, 0x0f, 0xe1, 0xfb, 0x1b, 0x25,
  0xec, 0x09, 0xeb, 0x01, 0x09, 0xdf, 0x1f, 0xdc, 0xf5, 0x09, 0xe9, 0x07,
  0xf1, 0x1f, 0x0d, 0x26, 0xe1, 0x06, 0xdf, 0x20, 0x1e, 0xee, 0xfb, 0x05,
  0x29, 0xe0, 0xe2, 0xe6, 0x20, 0xeb, 0xfb, 0x17, 0x18, 0xf6, 0xef, 0x10,
  0xfb, 0x15, 0x18, 0x23, 0xfc, 0x0d, 0xff, 0x05, 0xf5, 0x20, 0xe4, 0xfc,
  0x17, 0x13, 0xdb, 0x09, 0x0e, 0xe4, 0xf8, 0x0f, 0xfc, 0xdb, 0xe5, 0xe4,
  0xf8, 0xf2, 0x17, 0x21, 0x12, 0x25, 0xea, 0xf8, 0x24, 0x20, 0xda, 0x18,
  0x08, 0xe4, 0xe5, 0x03, 0xf4, 0xf2, 0x0c, 0xe0, 0x26, 0x1a, 0x0a, 0xf2,
  0xf5, 0xed, 0xf0, 0xd6, 0x15, 0x00, 0xd9, 0xe9, 0x27, 0xfb, 0x22, 0xe9,
  0xfe, 0xdc, 0x1d, 0xea, 0x27, 0x0f, 0xe0, 0xe2, 0xe9, 0x12, 0x1f, 0xf7,
  0x0b, 0xfe, 0x1a, 0x1a, 0xfe, 0xfc, 0xff, 0xff, 0x04, 0x00, 0x00, 0x00,
  0x80, 0x00, 0x00, 0x00, 0x8c, 0x02, 0x00, 0x00, 0x00, 0x00, 0x00, 0x00,
  0x8a, 0xfe, 0xff, 0xff, 0x00, 0x00, 0x00, 0x00, 0x07, 0x13, 0x00, 0x00,
  0xf0, 0xff, 0xff, 0xff, 0xfc, 0xf8, 0xff, 0xff, 0xd1, 0x08, 0x00, 0x00,
  0x72, 0x0a, 0x00, 0x00, 0xd6, 0x09, 0x00, 0x00, 0xb2, 0x2d, 0x00, 0x00,
  0xc8, 0x16, 0x00, 0x00, 0xfd, 0x13, 0x00, 0x00, 0x13, 0xfd, 0xff, 0xff,
  0xef, 0xff, 0xff, 0xff, 0x16, 0x17, 0x00, 0x00, 0x00, 0x00, 0x00, 0x00,
  0x51, 0xf6, 0xff, 0xff, 0x3b, 0xff, 0xff, 0xff, 0x37, 0x04, 0x00, 0x00,
  0x32, 0xf2, 0xff, 0xff, 0x95, 0xfe, 0xff, 0xff, 0x06, 0xfc, 0xff, 0xff,
  0xf6, 0x0a, 0x00, 0x00, 0x00, 0x00, 0x00, 0x00, 0x00, 0x00, 0x00, 0x00,
  0x85, 0x0b, 0x00, 0x00, 0x0c, 0xfc, 0xff, 0xff, 0x00, 0x00, 0x00, 0x00,
  0x04, 0x09, 0x00, 0x00, 0xbc, 0xff, 0xff, 0xff, 0xaf, 0xfe, 0xff, 0xff,
  0x8a, 0xfd, 0xff, 0xff, 0x04, 0x00, 0x00, 0x00, 0x00, 0x02, 0x00, 0x00,
  0x0a, 0x23, 0x1e, 0x23, 0x09, 0x08, 0x11, 0xed, 0x0b, 0xf8, 0xe7, 0xfe,
  0xfd, 0xf5, 0x19, 0xf4, 0xf3, 0xe4, 0xe7, 0x1c, 0x17, 0xf2, 0xf4, 0xe2,
  0xde, 0xff, 0xef, 0xf9, 0x1e, 0xe9, 0xfb, 0xe3, 0x14, 0x23, 0xf2, 0x1b,
  0x10, 0x10, 0xee, 0xe4, 0xdd, 0xeb, 0x96, 0x3c, 0xe2, 0xfe, 0xf6, 0xdc,
  0xef, 0x18, 0x1c, 0xe4, 0xec, 0x0f, 0x15, 0xe4, 0x03, 0xf9, 0x12, 0x16,
  0x08, 0x1b, 0xfd, 0xfa, 0x0c, 0x00, 0x18, 0x0a, 0xf8, 0x07, 0x10, 0x17,
  0xb5, 0x0a, 0x37, 0xf1, 0xe2, 0x08, 0x1f, 0xf6, 0x1c, 0x0f, 0x14, 0xe5,
  0xff, 0xe2, 0x0e, 0xef, 0x1d, 0x00, 0xfe, 0x25, 0x14, 0xdf, 0xf5, 0x0e,
  0xe1, 0xe2, 0xde, 0xf8, 0xe1, 0xea, 0x1e, 0xfb, 0xe0, 0x06, 0x1a, 0xf5,
  0x1d, 0xf0, 0x0b, 0xe1, 0x1f, 0xe2, 0x12, 0x02, 0x04, 0xfc, 0xef, 0x04,
  0xee, 0x04, 0xfe, 0xde, 0x09, 0xde, 0xf9, 0xde, 0x0c, 0x15, 0xe3, 0xe3,
  0x11, 0xf2, 0x22, 0x19, 0x03, 0x11, 0xe7, 0xec, 0xe8, 0xfe, 0xfc, 0xff,
  0x06, 0xf9, 0x22, 0xea, 0xf4, 0xde, 0x12, 0xdf, 0xf1, 0xf6, 0xdf, 0xe1,
  0xef, 0xe1, 0xf5, 0xe6, 0x14, 0xe5, 0xe8, 0xfe, 0x2f, 0x1e, 0x0d, 0x02,
  0xd9, 0xfd, 0xd0, 0x34, 0xdc, 0x03, 0xe0, 0xe7, 0xfc, 0x04, 0x08, 0x0f,
  0xfb, 0xe8, 0xed, 0x0b, 0xf6, 0xee, 0x10, 0xf8, 0x21, 0xee, 0xf3, 0x18,
  0x09, 0xea, 0xe5, 0xf5, 0x04, 0x21, 0xd9, 0xec, 0xd3, 0xcd, 0x1b, 0x20,
  0xd1, 0xde, 0xe6, 0xff, 0xfa, 0xe1, 0x1c, 0xe6, 0x0b, 0x00, 0xfc, 0x05,
  0xf0, 0xfd, 0x17, 0xe4, 0x07, 0x15, 0x21, 0x14, 0xfe, 0xf4, 0x08, 0x1f,
  0x40, 0xe6, 0xf3, 0x19, 0xde, 0xdf, 0x23, 0x3c, 0xd1, 0xec, 0x09, 0xc0,
  0x13, 0xdc, 0x1d, 0xf5, 0x0b, 0x01, 0xe9, 0x26, 0x1c, 0x18, 0xe6, 0x1e,
  0x05, 0xfb, 0x03, 0x0c, 0xf6, 0x08, 0xf0, 0x0c, 0x0c, 0x21, 0xf6, 0x08,
  0x01, 0xdf, 0x14, 0x24, 0xc6, 0x03, 0x11, 0xdb, 0xf1, 0xdb, 0x05, 0xd4,
  0xf6, 0xeb, 0xe3, 0x15, 0x14, 0x22, 0x08, 0x12, 0x13, 0x0b, 0x10, 0xfb,
  0xf2, 0xf5, 0x11, 0xf0, 0xd0, 0xf7, 0x1c, 0x11, 0x17, 0x04, 0x42, 0xc9,
  0x0b, 0x1b, 0x16, 0x01, 0x20, 0x0f, 0x22, 0xfb, 0x04, 0x0c, 0x12, 0x1a,
  0xf7, 0x0f, 0x20, 0xfb, 0xef, 0x15, 0x22, 0x1c, 0xfb, 0x0c, 0x1c, 0x08,
  0x19, 0x0c, 0x1a, 0xe1, 0x01, 0x14, 0xf6, 0x2f, 0x2a, 0x0c, 0x14, 0x2c,
  0x14, 0x06, 0x06, 0xef, 0xf3, 0x20, 0xf2, 0xe4, 0xe3, 0x1e, 0x04, 0x05,
  0x03, 0xdb, 0xf3, 0x05, 0x06, 0xe9, 0x04, 0xe5, 0xee, 0x04, 0xf5, 0xf0,
  0xf1, 0x2e, 0xea, 0x23, 0x28, 0x20, 0x12, 0x24, 0xe1, 0x0f, 0xde, 0x13,
  0xe8, 0xf6, 0x1b, 0x04, 0x0a, 0x1b, 0xfd, 0xf4, 0x0f, 0xe5, 0x14, 0xea,
  0x12, 0x0d, 0xf5, 0xfb, 0x33, 0xf5, 0x02, 0xe9, 0xf4, 0xfc, 0x24, 0x19,
  0x00, 0xe7, 0xd6, 0xd9, 0x1d, 0xdb, 0xfa, 0xfd, 0xdb, 0xe3, 0x0c, 0x12,
  0xf2, 0xe0, 0x03, 0xe5, 0xed, 0x06, 0xee, 0x1c, 0x22, 0x0a, 0xe5, 0xe2,
  0x08, 0xfb, 0x21, 0x03, 0xcb, 0x0a, 0x2b, 0x07, 0xff, 0x0e, 0xe0, 0x02,
  0xf2, 0xde, 0x1c, 0xea, 0xe1, 0xe8, 0xdc, 0x1a, 0x22, 0xef, 0x0b, 0xef,
  0x0f, 0xf6, 0x04, 0x0f, 0xdc, 0xdf, 0xf9, 0x0d, 0x14, 0xf4, 0xdb, 0xfe,
  0xf2, 0x0f, 0x0c, 0xe1, 0xf9, 0x0c, 0x0a, 0xf3, 0xe7, 0x05, 0x18, 0xe4,
  0xdc, 0x0b, 0x0b, 0x15, 0xed, 0xea, 0x14, 0xef, 0x0f, 0xdf, 0x1a, 0x0c,
  0xfe, 0xf8, 0xe2, 0x1d, 0xe1, 0xf3, 0x2b, 0xe8, 0xf1, 0xde, 0x81, 0xda,
  0xfd, 0x0f, 0x19, 0xe6, 0x12, 0xfb, 0xf9, 0x00, 0x2f, 0x1d, 0x28, 0xef,
  0x09, 0xde, 0xe9, 0x04, 0x04, 0xef, 0x10, 0xee, 0x96, 0xff, 0xff, 0xff,
  0x04, 0x00, 0x00, 0x00, 0x40, 0x00, 0x00, 0x00, 0x43, 0xfe, 0xff, 0xff,
  0x48, 0xf6, 0xff, 0xff, 0x37, 0x04, 0x00, 0x00, 0x54, 0xfc, 0xff, 0xff,
  0xf6, 0xfe, 0xff, 0xff, 0x08, 0xfb, 0xff, 0xff, 0x9c, 0x0c, 0x00, 0x00,
  0x94, 0x0f, 0x00, 0x00, 0xfe, 0x0c, 0x00, 0x00, 0x0a, 0x03, 0x00, 0x00,
  0x4b, 0xff, 0xff, 0xff, 0x0d, 0xff, 0xff, 0xff, 0xe0, 0x0d, 0x00, 0x00,
  0xbb, 0x05, 0x00, 0x00, 0x59, 0xfe, 0xff, 0xff, 0x9b, 0xea, 0xff, 0xff,
  0xe2, 0xff, 0xff, 0xff, 0x04, 0x00, 0x00, 0x00, 0x10, 0x00, 0x00, 0x00,
  0xd0, 0x13, 0xdc, 0x20, 0xd0, 0x3f, 0x53, 0x39, 0x62, 0xbc, 0xb5, 0xc6,
  0x50, 0xee, 0x48, 0x7f, 0x00, 0x00, 0x06, 0x00, 0x08, 0x00, 0x04, 0x00,
  0x06, 0x00, 0x00, 0x00, 0x04, 0x00, 0x00, 0x00, 0x04, 0x00, 0x00, 0x00,
  0x3d, 0xfb, 0xff, 0xff, 0x80, 0xff, 0xff, 0xff, 0x84, 0xff, 0xff, 0xff,
  0x0f, 0x00, 0x00, 0x00, 0x4d, 0x4c, 0x49, 0x52, 0x20, 0x43, 0x6f, 0x6e,
  0x76, 0x65, 0x72, 0x74, 0x65, 0x64, 0x2e, 0x00, 0x01, 0x00, 0x00, 0x00,
  0x14, 0x00, 0x00, 0x00, 0x00, 0x00, 0x0e, 0x00, 0x18, 0x00, 0x14, 0x00,
  0x10, 0x00, 0x0c, 0x00, 0x08, 0x00, 0x04, 0x00, 0x0e, 0x00, 0x00, 0x00,
  0x14, 0x00, 0x00, 0x00, 0x1c, 0x00, 0x00, 0x00, 0x14, 0x01, 0x00, 0x00,
  0x18, 0x01, 0x00, 0x00, 0x1c, 0x01, 0x00, 0x00, 0x04, 0x00, 0x00, 0x00,
  0x6d, 0x61, 0x69, 0x6e, 0x00, 0x00, 0x00, 0x00, 0x04, 0x00, 0x00, 0x00,
  0xbc, 0x00, 0x00, 0x00, 0x74, 0x00, 0x00, 0x00, 0x3c, 0x00, 0x00, 0x00,
  0x04, 0x00, 0x00, 0x00, 0x62, 0xff, 0xff, 0xff, 0x14, 0x00, 0x00, 0x00,
  0x00, 0x00, 0x00, 0x08, 0x10, 0x00, 0x00, 0x00, 0x14, 0x00, 0x00, 0x00,
  0x04, 0x00, 0x04, 0x00, 0x04, 0x00, 0x00, 0x00, 0x01, 0x00, 0x00, 0x00,
  0x0c, 0x00, 0x00, 0x00, 0x03, 0x00, 0x00, 0x00, 0x0b, 0x00, 0x00, 0x00,
  0x02, 0x00, 0x00, 0x00, 0x01, 0x00, 0x00, 0x00, 0x96, 0xff, 0xff, 0xff,
  0x10, 0x00, 0x00, 0x00, 0x00, 0x00, 0x00, 0x08, 0x10, 0x00, 0x00, 0x00,
  0x14, 0x00, 0x00, 0x00, 0x86, 0xff, 0xff, 0xff, 0x00, 0x00, 0x00, 0x01,
  0x01, 0x00, 0x00, 0x00, 0x0b, 0x00, 0x00, 0x00, 0x03, 0x00, 0x00, 0x00,
  0x0a, 0x00, 0x00, 0x00, 0x04, 0x00, 0x00, 0x00, 0x03, 0x00, 0x00, 0x00,
  0xca, 0xff, 0xff, 0xff, 0x10, 0x00, 0x00, 0x00, 0x00, 0x00, 0x00, 0x08,
  0x10, 0x00, 0x00, 0x00, 0x14, 0x00, 0x00, 0x00, 0xba, 0xff, 0xff, 0xff,
  0x00, 0x00, 0x00, 0x01, 0x01, 0x00, 0x00, 0x00, 0x0a, 0x00, 0x00, 0x00,
  0x03, 0x00, 0x00, 0x00, 0x09, 0x00, 0x00, 0x00, 0x06, 0x00, 0x00, 0x00,
  0x05, 0x00, 0x00, 0x00, 0x00, 0x00, 0x0e, 0x00, 0x16, 0x00, 0x00, 0x00,
  0x10, 0x00, 0x0c, 0x00, 0x0b, 0x00, 0x04, 0x00, 0x0e, 0x00, 0x00, 0x00,
  0x18, 0x00, 0x00, 0x00, 0x00, 0x00, 0x00, 0x08, 0x18, 0x00, 0x00, 0x00,
  0x1c, 0x00, 0x00, 0x00, 0x00, 0x00, 0x06, 0x00, 0x08, 0x00, 0x07, 0x00,
  0x06, 0x00, 0x00, 0x00, 0x00, 0x00, 0x00, 0x01, 0x01, 0x00, 0x00, 0x00,
  0x09, 0x00, 0x00, 0x00, 0x03, 0x00, 0x00, 0x00, 0x00, 0x00, 0x00, 0x00,
  0x08, 0x00, 0x00, 0x00, 0x07, 0x00, 0x00, 0x00, 0x01, 0x00, 0x00, 0x00,
  0x0c, 0x00, 0x00, 0x00, 0x01, 0x00, 0x00, 0x00, 0x00, 0x00, 0x00, 0x00,
  0x0d, 0x00, 0x00, 0x00, 0x68, 0x06, 0x00, 0x00, 0xd8, 0x05, 0x00, 0x00,
  0x54, 0x05, 0x00, 0x00, 0xd8, 0x04, 0x00, 0x00, 0x6c, 0x04, 0x00, 0x00,
  0xf0, 0x03, 0x00, 0x00, 0x84, 0x03, 0x00, 0x00, 0x08, 0x03, 0x00, 0x00,
  0x9c, 0x02, 0x00, 0x00, 0xe8, 0x01, 0x00, 0x00, 0x34, 0x01, 0x00, 0x00,
  0x80, 0x00, 0x00, 0x00, 0x04, 0x00, 0x00, 0x00, 0xe2, 0xf9, 0xff, 0xff,
  0x00, 0x00, 0x00, 0x01, 0x18, 0x00, 0x00, 0x00, 0x20, 0x00, 0x00, 0x00,
  0x3c, 0x00, 0x00, 0x00, 0x0d, 0x00, 0x00, 0x00, 0x00, 0x00, 0x00, 0x09,
  0x50, 0x00, 0x00, 0x00, 0x02, 0x00, 0x00, 0x00, 0xff, 0xff, 0xff, 0xff,
  0x01, 0x00, 0x00, 0x00, 0xcc, 0xf9, 0xff, 0xff, 0x08, 0x00, 0x00, 0x00,
  0x10, 0x00, 0x00, 0x00, 0x01, 0x00, 0x00, 0x00, 0xff, 0xff, 0xff, 0xff,
  0xff, 0xff, 0xff, 0xff, 0x01, 0x00, 0x00, 0x00, 0xa8, 0x1e, 0x00, 0x3c,
  0x19, 0x00, 0x00, 0x00, 0x53, 0x74, 0x61, 0x74, 0x65, 0x66, 0x75, 0x6c,
  0x50, 0x61, 0x72, 0x74, 0x69, 0x74, 0x69, 0x6f, 0x6e, 0x65, 0x64, 0x43,
  0x61, 0x6c, 0x6c, 0x3a, 0x30, 0x00, 0x00, 0x00, 0x02, 0x00, 0x00, 0x00,
  0x01, 0x00, 0x00, 0x00, 0x01, 0x00, 0x00, 0x00, 0x5a, 0xfa, 0xff, 0xff,
  0x00, 0x00, 0x00, 0x01, 0x18, 0x00, 0x00, 0x00, 0x20, 0x00, 0x00, 0x00,
  0x3c, 0x00, 0x00, 0x00, 0x0c, 0x00, 0x00, 0x00, 0x00, 0x00, 0x00, 0x09,
  0x88, 0x00, 0x00, 0x00, 0x02, 0x00, 0x00, 0x00, 0xff, 0xff, 0xff, 0xff,
  0x10, 0x00, 0x00, 0x00, 0x44, 0xfa, 0xff, 0xff, 0x08, 0x00, 0x00, 0x00,
  0x10, 0x00, 0x00, 0x00, 0x01, 0x00, 0x00, 0x00, 0x80, 0xff, 0xff, 0xff,
  0xff, 0xff, 0xff, 0xff, 0x01, 0x00, 0x00, 0x00, 0x4b, 0x36, 0xaf, 0x3b,
  0x52, 0x00, 0x00, 0x00, 0x73, 0x65, 0x71, 0x75, 0x65, 0x6e, 0x74, 0x69,
  0x61, 0x6c, 0x5f, 0x31, 0x2f, 0x64, 0x65, 0x6e, 0x73, 0x65, 0x5f, 0x34,
  0x2f, 0x4d, 0x61, 0x74, 0x4d, 0x75, 0x6c, 0x3b, 0x73, 0x65, 0x71, 0x75,
  0x65, 0x6e, 0x74, 0x69, 0x61, 0x6c, 0x5f, 0x31, 0x2f, 0x64, 0x65, 0x6e,
  0x73, 0x65, 0x5f, 0x34, 0x2f, 0x52, 0x65, 0x6c, 0x75, 0x3b, 0x73, 0x65,
  0x71, 0x75, 0x65, 0x6e, 0x74, 0x69, 0x61, 0x6c, 0x5f, 0x31, 0x2f, 0x64,
  0x65, 0x6e, 0x73, 0x65, 0x5f, 0x34, 0x2f, 0x42, 0x69, 0x61, 0x73, 0x41,
  0x64, 0x64, 0x00, 0x00, 0x02, 0x00, 0x00, 0x00, 0x01, 0x00, 0x00, 0x00,
  0x10, 0x00, 0x00, 0x00, 0x0a, 0xfb, 0xff, 0xff, 0x00, 0x00, 0x00, 0x01,
  0x18, 0x00, 0x00, 0x00, 0x20, 0x00, 0x00, 0x00, 0x3c, 0x00, 0x00, 0x00,
  0x0b, 0x00, 0x00, 0x00, 0x00, 0x00, 0x00, 0x09, 0x88, 0x00, 0x00, 0x00,
  0x02, 0x00, 0x00, 0x00, 0xff, 0xff, 0xff, 0xff, 0x20, 0x00, 0x00, 0x00,
  0xf4, 0xfa, 0xff, 0xff, 0x08, 0x00, 0x00, 0x00, 0x10, 0x00, 0x00, 0x00,
  0x01, 0x00, 0x00, 0x00, 0x80, 0xff, 0xff, 0xff, 0xff, 0xff, 0xff, 0xff,
  0x01, 0x00, 0x00, 0x00, 0x8b, 0x50, 0xb2, 0x3b, 0x52, 0x00, 0x00, 0x00,
  0x73, 0x65, 0x71, 0x75, 0x65, 0x6e, 0x74, 0x69, 0x61, 0x6c, 0x5f, 0x31,
  0x2f, 0x64, 0x65, 0x6e, 0x73, 0x65, 0x5f, 0x33, 0x2f, 0x4d, 0x61, 0x74,
  0x4d, 0x75, 0x6c, 0x3b, 0x73, 0x65, 0x71, 0x75, 0x65, 0x6e, 0x74, 0x69,
  0x61, 0x6c, 0x5f, 0x31, 0x2f, 0x64, 0x65, 0x6e, 0x73, 0x65, 0x5f, 0x33,
  0x2f, 0x52, 0x65, 0x6c, 0x75, 0x3b, 0x73, 0x65, 0x71, 0x75, 0x65, 0x6e,
  0x74, 0x69, 0x61, 0x6c, 0x5f, 0x31, 0x2f, 0x64, 0x65, 0x6e, 0x73, 0x65,
  0x5f, 0x33, 0x2f, 0x42, 0x69, 0x61, 0x73, 0x41, 0x64, 0x64, 0x00, 0x00,
  0x02, 0x00, 0x00, 0x00, 0x01, 0x00, 0x00, 0x00, 0x20, 0x00, 0x00, 0x00,
  0xba, 0xfb, 0xff, 0xff, 0x00, 0x00, 0x00, 0x01, 0x18, 0x00, 0x00, 0x00,
  0x20, 0x00, 0x00, 0x00, 0x3c, 0x00, 0x00, 0x00, 0x0a, 0x00, 0x00, 0x00,
  0x00, 0x00, 0x00, 0x09, 0x88, 0x00, 0x00, 0x00, 0x02, 0x00, 0x00, 0x00,
  0xff, 0xff, 0xff, 0xff, 0x40, 0x00, 0x00, 0x00, 0xa4, 0xfb, 0xff, 0xff,
  0x08, 0x00, 0x00, 0x00, 0x10, 0x00, 0x00, 0x00, 0x01, 0x00, 0x00, 0x00,
  0x80, 0xff, 0xff, 0xff, 0xff, 0xff, 0xff, 0xff, 0x01, 0x00, 0x00, 0x00,
  0x37, 0x29, 0xe3, 0x3b, 0x52, 0x00, 0x00, 0x00, 0x73, 0x65, 0x71, 0x75,
  0x65, 0x6e, 0x74, 0x69, 0x61, 0x6c, 0x5f, 0x31, 0x2f, 0x64, 0x65, 0x6e,
  0x73, 0x65, 0x5f, 0x32, 0x2f, 0x4d, 0x61, 0x74, 0x4d, 0x75, 0x6c, 0x3b,
  0x73, 0x65, 0x71, 0x75, 0x65, 0x6e, 0x74, 0x69, 0x61, 0x6c, 0x5f, 0x31,
  0x2f, 0x64, 0x65, 0x6e, 0x73, 0x65, 0x5f, 0x32, 0x2f, 0x52, 0x65, 0x6c,
  0x75, 0x3b, 0x73, 0x65, 0x71, 0x75, 0x65, 0x6e, 0x74, 0x69, 0x61, 0x6c,
  0x5f, 0x31, 0x2f, 0x64, 0x65, 0x6e, 0x73, 0x65, 0x5f, 0x32, 0x2f, 0x42,
  0x69, 0x61, 0x73, 0x41, 0x64, 0x64, 0x00, 0x00, 0x02, 0x00, 0x00, 0x00,
  0x01, 0x00, 0x00, 0x00, 0x40, 0x00, 0x00, 0x00, 0xf6, 0xfc, 0xff, 0xff,
  0x00, 0x00, 0x00, 0x01, 0x14, 0x00, 0x00, 0x00, 0x30, 0x00, 0x00, 0x00,
  0x09, 0x00, 0x00, 0x00, 0x00, 0x00, 0x00, 0x09, 0x44, 0x00, 0x00, 0x00,
  0x44, 0xfc, 0xff, 0xff, 0x08, 0x00, 0x00, 0x00, 0x10, 0x00, 0x00, 0x00,
  0x01, 0x00, 0x00, 0x00, 0x00, 0x00, 0x00, 0x00, 0x00, 0x00, 0x00, 0x00,
  0x01, 0x00, 0x00, 0x00, 0x61, 0x96, 0x15, 0x3b, 0x1b, 0x00, 0x00, 0x00,
  0x73, 0x65, 0x71, 0x75, 0x65, 0x6e, 0x74, 0x69, 0x61, 0x6c, 0x5f, 0x31,
  0x2f, 0x64, 0x65, 0x6e, 0x73, 0x65, 0x5f, 0x32, 0x2f, 0x4d, 0x61, 0x74,
  0x4d, 0x75, 0x6c, 0x00, 0x02, 0x00, 0x00, 0x00, 0x40, 0x00, 0x00, 0x00,
  0x01, 0x00, 0x00, 0x00, 0x5e, 0xfd, 0xff, 0xff, 0x00, 0x00, 0x00, 0x01,
  0x14, 0x00, 0x00, 0x00, 0x34, 0x00, 0x00, 0x00, 0x08, 0x00, 0x00, 0x00,
  0x00, 0x00, 0x00, 0x02, 0x58, 0x00, 0x00, 0x00, 0xac, 0xfc, 0xff, 0xff,
  0x08, 0x00, 0x00, 0x00, 0x14, 0x00, 0x00, 0x00, 0x01, 0x00, 0x00, 0x00,
  0x00, 0x00, 0x00, 0x00, 0x00, 0x00, 0x00, 0x00, 0x00, 0x00, 0x00, 0x00,
  0x01, 0x00, 0x00, 0x00, 0x38, 0x8b, 0x6b, 0x38, 0x2b, 0x00, 0x00, 0x00,
  0x73, 0x65, 0x71, 0x75, 0x65, 0x6e, 0x74, 0x69, 0x61, 0x6c, 0x5f, 0x31,
  0x2f, 0x64, 0x65, 0x6e, 0x73, 0x65, 0x5f, 0x32, 0x2f, 0x42, 0x69, 0x61,
  0x73, 0x41, 0x64, 0x64, 0x2f, 0x52, 0x65, 0x61, 0x64, 0x56, 0x61, 0x72,
  0x69, 0x61, 0x62, 0x6c, 0x65, 0x4f, 0x70, 0x00, 0x01, 0x00, 0x00, 0x00,
  0x40, 0x00, 0x00, 0x00, 0xd6, 0xfd, 0xff, 0xff, 0x00, 0x00, 0x00, 0x01,
  0x14, 0x00, 0x00, 0x00, 0x30, 0x00, 0x00, 0x00, 0x07, 0x00, 0x00, 0x00,
  0x00, 0x00, 0x00, 0x09, 0x44, 0x00, 0x00, 0x00, 0x24, 0xfd, 0xff, 0xff,
  0x08, 0x00, 0x00, 0x00, 0x10, 0x00, 0x00, 0x00, 0x01, 0x00, 0x00, 0x00,
  0x00, 0x00, 0x00, 0x00, 0x00, 0x00, 0x00, 0x00, 0x01, 0x00, 0x00, 0x00,
  0x54, 0x0e, 0xc4, 0x3b, 0x1b, 0x00, 0x00, 0x00, 0x73, 0x65, 0x71, 0x75,
  0x65, 0x6e, 0x74, 0x69, 0x61, 0x6c, 0x5f, 0x31, 0x2f, 0x64, 0x65, 0x6e,
  0x73, 0x65, 0x5f, 0x33, 0x2f, 0x4d, 0x61, 0x74, 0x4d, 0x75, 0x6c, 0x00,
  0x02, 0x00, 0x00, 0x00, 0x20, 0x00, 0x00, 0x00, 0x40, 0x00, 0x00, 0x00,
  0x3e, 0xfe, 0xff, 0xff, 0x00, 0x00, 0x00, 0x01, 0x14, 0x00, 0x00, 0x00,
  0x34, 0x00, 0x00, 0x00, 0x06, 0x00, 0x00, 0x00, 0x00, 0x00, 0x00, 0x02,
  0x58, 0x00, 0x00, 0x00, 0x8c, 0xfd, 0xff, 0xff, 0x08, 0x00, 0x00, 0x00,
  0x14, 0x00, 0x00, 0x00, 0x01, 0x00, 0x00, 0x00, 0x00, 0x00, 0x00, 0x00,
  0x00, 0x00, 0x00, 0x00, 0x00, 0x00, 0x00, 0x00, 0x01, 0x00, 0x00, 0x00,
  0x45, 0xf8, 0x2d, 0x38, 0x2b, 0x00, 0x00, 0x00, 0x73, 0x65, 0x71, 0x75,
  0x65, 0x6e, 0x74, 0x69, 0x61, 0x6c, 0x5f, 0x31, 0x2f, 0x64, 0x65, 0x6e,
  0x73, 0x65, 0x5f, 0x33, 0x2f, 0x42, 0x69, 0x61, 0x73, 0x41, 0x64, 0x64,
  0x2f, 0x52, 0x65, 0x61, 0x64, 0x56, 0x61, 0x72, 0x69, 0x61, 0x62, 0x6c,
  0x65, 0x4f, 0x70, 0x00, 0x01, 0x00, 0x00, 0x00, 0x20, 0x00, 0x00, 0x00,
  0xb6, 0xfe, 0xff, 0xff, 0x00, 0x00, 0x00, 0x01, 0x14, 0x00, 0x00, 0x00,
  0x30, 0x00, 0x00, 0x00, 0x05, 0x00, 0x00, 0x00, 0x00, 0x00, 0x00, 0x09,
  0x44, 0x00, 0x00, 0x00, 0x04, 0xfe, 0xff, 0xff, 0x08, 0x00, 0x00, 0x00,
  0x10, 0x00, 0x00, 0x00, 0x01, 0x00, 0x00, 0x00, 0x00, 0x00, 0x00, 0x00,
  0x00, 0x00, 0x00, 0x00, 0x01, 0x00, 0x00, 0x00, 0xc8, 0xfd, 0x22, 0x3c,
  0x1b, 0x00, 0x00, 0x00, 0x73, 0x65, 0x71, 0x75, 0x65, 0x6e, 0x74, 0x69,
  0x61, 0x6c, 0x5f, 0x31, 0x2f, 0x64, 0x65, 0x6e, 0x73, 0x65, 0x5f, 0x34,
  0x2f, 0x4d, 0x61, 0x74, 0x4d, 0x75, 0x6c, 0x00, 0x02, 0x00, 0x00, 0x00,
  0x10, 0x00, 0x00, 0x00, 0x20, 0x00, 0x00, 0x00, 0x1e, 0xff, 0xff, 0xff,
  0x00, 0x00, 0x00, 0x01, 0x14, 0x00, 0x00, 0x00, 0x34, 0x00, 0x00, 0x00,
  0x04, 0x00, 0x00, 0x00, 0x00, 0x00, 0x00, 0x02, 0x58, 0x00, 0x00, 0x00,
  0x6c, 0xfe, 0xff, 0xff, 0x08, 0x00, 0x00, 0x00, 0x14, 0x00, 0x00, 0x00,
  0x01, 0x00, 0x00, 0x00, 0x00, 0x00, 0x00, 0x00, 0x00, 0x00, 0x00, 0x00,
  0x00, 0x00, 0x00, 0x00, 0x01, 0x00, 0x00, 0x00, 0x7a, 0x0f, 0x63, 0x38,
  0x2b, 0x00, 0x00, 0x00, 0x73, 0x65, 0x71, 0x75, 0x65, 0x6e, 0x74, 0x69,
  0x61, 0x6c, 0x5f, 0x31, 0x2f, 0x64, 0x65, 0x6e, 0x73, 0x65, 0x5f, 0x34,
  0x2f, 0x42, 0x69, 0x61, 0x73, 0x41, 0x64, 0x64, 0x2f, 0x52, 0x65, 0x61,
  0x64, 0x56, 0x61, 0x72, 0x69, 0x61, 0x62, 0x6c, 0x65, 0x4f, 0x70, 0x00,
  0x01, 0x00, 0x00, 0x00, 0x10, 0x00, 0x00, 0x00, 0x96, 0xff, 0xff, 0xff,
  0x00, 0x00, 0x00, 0x01, 0x14, 0x00, 0x00, 0x00, 0x30, 0x00, 0x00, 0x00,
  0x03, 0x00, 0x00, 0x00, 0x00, 0x00, 0x00, 0x09, 0x44, 0x00, 0x00, 0x00,
  0xe4, 0xfe, 0xff, 0xff, 0x08, 0x00, 0x00, 0x00, 0x10, 0x00, 0x00, 0x00,
  0x01, 0x00, 0x00, 0x00, 0x00, 0x00, 0x00, 0x00, 0x00, 0x00, 0x00, 0x00,
  0x01, 0x00, 0x00, 0x00, 0xa5, 0xab, 0xfc, 0x3b, 0x1b, 0x00, 0x00, 0x00,
  0x73, 0x65, 0x71, 0x75, 0x65, 0x6e, 0x74, 0x69, 0x61, 0x6c, 0x5f, 0x31,
  0x2f, 0x64, 0x65, 0x6e, 0x73, 0x65, 0x5f, 0x35, 0x2f, 0x4d, 0x61, 0x74,
  0x4d, 0x75, 0x6c, 0x00, 0x02, 0x00, 0x00, 0x00, 0x01, 0x00, 0x00, 0x00,
  0x10, 0x00, 0x00, 0x00, 0x00, 0x00, 0x16, 0x00, 0x1c, 0x00, 0x18, 0x00,
  0x17, 0x00, 0x10, 0x00, 0x0c, 0x00, 0x08, 0x00, 0x00, 0x00, 0x00, 0x00,
  0x00, 0x00, 0x07, 0x00, 0x16, 0x00, 0x00, 0x00, 0x00, 0x00, 0x00, 0x01,
  0x14, 0x00, 0x00, 0x00, 0x30, 0x00, 0x00, 0x00, 0x02, 0x00, 0x00, 0x00,
  0x00, 0x00, 0x00, 0x02, 0x54, 0x00, 0x00, 0x00, 0x64, 0xff, 0xff, 0xff,
  0x08, 0x00, 0x00, 0x00, 0x10, 0x00, 0x00, 0x00, 0x01, 0x00, 0x00, 0x00,
  0x00, 0x00, 0x00, 0x00, 0x00, 0x00, 0x00, 0x00, 0x01, 0x00, 0x00, 0x00,
  0xec, 0xee, 0x2c, 0x38, 0x2b, 0x00, 0x00, 0x00, 0x73, 0x65, 0x71, 0x75,
  0x65, 0x6e, 0x74, 0x69, 0x61, 0x6c, 0x5f, 0x31, 0x2f, 0x64, 0x65, 0x6e,
  0x73, 0x65, 0x5f, 0x35, 0x2f, 0x42, 0x69, 0x61, 0x73, 0x41, 0x64, 0x64,
  0x2f, 0x52, 0x65, 0x61, 0x64, 0x56, 0x61, 0x72, 0x69, 0x61, 0x62, 0x6c,
  0x65, 0x4f, 0x70, 0x00, 0x01, 0x00, 0x00, 0x00, 0x01, 0x00, 0x00, 0x00,
  0x00, 0x00, 0x16, 0x00, 0x20, 0x00, 0x1c, 0x00, 0x1b, 0x00, 0x14, 0x00,
  0x10, 0x00, 0x0c, 0x00, 0x00, 0x00, 0x00, 0x00, 0x08, 0x00, 0x07, 0x00,
  0x16, 0x00, 0x00, 0x00, 0x00, 0x00, 0x00, 0x01, 0x18, 0x00, 0x00, 0x00,
  0x2c, 0x00, 0x00, 0x00, 0x4c, 0x00, 0x00, 0x00, 0x01, 0x00, 0x00, 0x00,
  0x00, 0x00, 0x00, 0x09, 0x64, 0x00, 0x00, 0x00, 0x02, 0x00, 0x00, 0x00,
  0xff, 0xff, 0xff, 0xff, 0x01, 0x00, 0x00, 0x00, 0x0c, 0x00, 0x0c, 0x00,
  0x00, 0x00, 0x00, 0x00, 0x08, 0x00, 0x04, 0x00, 0x0c, 0x00, 0x00, 0x00,
  0x08, 0x00, 0x00, 0x00, 0x14, 0x00, 0x00, 0x00, 0x01, 0x00, 0x00, 0x00,
  0x80, 0xff, 0xff, 0xff, 0xff, 0xff, 0xff, 0xff, 0x00, 0x00, 0x00, 0x00,
  0x01, 0x00, 0x00, 0x00, 0x41, 0x8d, 0xc9, 0x3c, 0x1f, 0x00, 0x00, 0x00,
  0x73, 0x65, 0x72, 0x76, 0x69, 0x6e, 0x67, 0x5f, 0x64, 0x65, 0x66, 0x61,
  0x75, 0x6c, 0x74, 0x5f, 0x64, 0x65, 0x6e, 0x73, 0x65, 0x5f, 0x32, 0x5f,
  0x69, 0x6e, 0x70, 0x75, 0x74, 0x3a, 0x30, 0x00, 0x02, 0x00, 0x00, 0x00,
  0x01, 0x00, 0x00, 0x00, 0x01, 0x00, 0x00, 0x00, 0x01, 0x00, 0x00, 0x00,
  0x10, 0x00, 0x00, 0x00, 0x0c, 0x00, 0x10, 0x00, 0x0f, 0x00, 0x00, 0x00,
  0x08, 0x00, 0x04, 0x00, 0x0c, 0x00, 0x00, 0x00, 0x09, 0x00, 0x00, 0x00,
  0x04, 0x00, 0x00, 0x00, 0x00, 0x00, 0x00, 0x09
};
const unsigned int g_model_len = 5864;
